{
  "</s>": 0,
  "<unk>": 1,
  ",": 2,
  ".": 3,
  "\u2581the": 4,
  "\u2581of": 5,
  "\u2581\u0432": 6,
  "\u2581\u0438": 7,
  "\u2581and": 8,
  "\u2581to": 9,
  "\u2581in": 10,
  "-": 11,
  ";": 12,
  "\u2581a": 13,
  "\u2581(": 14,
  "\u2581\u043f\u043e": 15,
  "\u2581\u0441": 16,
  "\u2581\u043d\u0430": 17,
  "'": 18,
  "?": 19,
  "\u2581for": 20,
  "\u2581": 21,
  "\u2581that": 22,
  "s": 23,
  ")": 24,
  "\u2581on": 25,
  "\u2581\u043d\u0435": 26,
  "\u2581-": 27,
  "\u2581\u0447\u0442\u043e": 28,
  "\u2581I": 29,
  "\u0435": 30,
  "\u2581&": 31,
  "\u2581The": 32,
  "\u2581you": 33,
  "\u2581is": 34,
  "\u2581\u043e": 35,
  "\u2581be": 36,
  "\u2581with": 37,
  ":": 38,
  "\u2581by": 39,
  "\u2581\u0434\u043b\u044f": 40,
  "\u0430": 41,
  "\u2581\u043a": 42,
  "\u2581as": 43,
  "\u0445": 44,
  "t": 45,
  "\u043c": 46,
  "\u2581it": 47,
  "\u0439": 48,
  "\u2581\u0412": 49,
  "\u2581was": 50,
  "/": 51,
  "\u2581\u0437\u0430": 52,
  "\u0438": 53,
  "\u2581\u0433\u043e\u0434\u0430": 54,
  "\u2581are": 55,
  "!": 56,
  "\u043e\u0433\u043e": 57,
  "\u2581\u043e\u0442": 58,
  "\u2581at": 59,
  "\u0443": 60,
  "\u2581not": 61,
  "\u2581its": 62,
  "\u2581have": 63,
  "\u2581or": 64,
  "\u2581from": 65,
  "\u2581this": 66,
  "...": 67,
  "a": 68,
  "\u2581\u043a\u0430\u043a": 69,
  "\u043e": 70,
  "\u2581\"": 71,
  "\u2581\u0430": 72,
  "\u2581\u0438\u0437": 73,
  "\u2581\u0438\u043b\u0438": 74,
  "\u2581\u044f": 75,
  "\u2581\u042f": 76,
  "\u2581an": 77,
  "\u2581\u0442\u0430\u043a\u0436\u0435": 78,
  "\u2581\u044d\u0442\u043e": 79,
  "\u2581all": 80,
  "\u2581which": 81,
  "\u2581\u0435\u0433\u043e": 82,
  "\u2581their": 83,
  "\u043e\u0439": 84,
  "\u2581will": 85,
  "\u2581A": 86,
  "\u2581Committee": 87,
  "\u2581has": 88,
  "\u2581\u0438\u0445": 89,
  "\u2581In": 90,
  "u": 91,
  "\u2581\u043f\u0440\u0438": 92,
  "\u0441\u044f": 93,
  "\u2581had": 94,
  "\u2581\u0443": 95,
  "\u2581been": 96,
  "\u2581It": 97,
  "ot": 98,
  "q": 99,
  "\u044b": 100,
  "\u25811": 101,
  "\u2581were": 102,
  "\u2581You": 103,
  "m": 104,
  "\u2581we": 105,
  "\u0430\u044f": 106,
  "\u2581\u0447\u0442\u043e\u0431\u044b": 107,
  "\u2581me": 108,
  "\u2581United": 109,
  ").": 110,
  "\u2581\u0421": 111,
  "\u2581\u0442\u044b": 112,
  "\u2581international": 113,
  "\u2581would": 114,
  "\u043e\u043c": 115,
  "quot": 116,
  "),": 117,
  "ing": 118,
  "\u2581\u043a\u043e\u0442\u043e\u0440\u044b\u0435": 119,
  "\u2581should": 120,
  "\u043c\u0438": 121,
  "\u2581\u0431\u044b": 122,
  "\u2581also": 123,
  "\u2581\u0442\u043e\u043c": 124,
  "\u2581other": 125,
  "\u2581Nations": 126,
  "\u2581can": 127,
  "\u2581\u0432\u044b": 128,
  "\u2581States": 129,
  "\u2581\u0434\u043e": 130,
  "\u2581they": 131,
  "\u2581\u041e\u0440\u0433\u0430\u043d\u0438\u0437\u0430\u0446\u0438\u0438": 132,
  "\u2581\u041d\u0430\u0446\u0438\u0439": 133,
  "\u2581he": 134,
  "\u2581\u0442\u043e": 135,
  "d": 136,
  "\u2581\u0418": 137,
  "\u2581\u041e\u0431\u044a\u0435\u0434\u0438\u043d\u0435\u043d\u043d\u044b\u0445": 138,
  "pos": 139,
  "g": 140,
  "\u043d": 141,
  "\u2581\u0431\u0443\u0434\u0435\u0442": 142,
  "\u2581\u0442\u043e\u0433\u043e": 143,
  "\u2581s": 144,
  "\u2581\u0432\u0441\u0435": 145,
  "\u2581\u043e\u043d": 146,
  "\u2581do": 147,
  "\u2581\u043e\u0431\u043b\u0430\u0441\u0442\u0438": 148,
  "\u2581your": 149,
  "\u2581development": 150,
  "\u2581\u043e\u0431": 151,
  "\u2581Council": 152,
  "re": 153,
  "\u25812": 154,
  "\u2581out": 155,
  "\u2581We": 156,
  "\u2581rights": 157,
  "\u2581report": 158,
  "\u2581one": 159,
  "\u2581He": 160,
  "\u2581\u0431\u044b\u043b\u043e": 161,
  "\u2581\u0447\u0435\u043b\u043e\u0432\u0435\u043a\u0430": 162,
  "\u2581my": 163,
  "\u2581\u043c\u044b": 164,
  "\u25813": 165,
  "l": 166,
  "\u2581\u042d\u0442\u043e": 167,
  "\u2581work": 168,
  "\u2581\u0440\u0430\u0437\u0432\u0438\u0442\u0438\u044f": 169,
  "\u2581No": 170,
  "e": 171,
  "\u0433\u043e": 172,
  "\u044e": 173,
  "\u2581countries": 174,
  "\u2581his": 175,
  "\u2581\u041f\u043e": 176,
  "\u2581\u0435\u0435": 177,
  "\u2581under": 178,
  "\u2581what": 179,
  "\u2581such": 180,
  "\u2581but": 181,
  "\u2581know": 182,
  "\u2581\u0442\u0430\u043a": 183,
  "\u2581\u043e\u043d\u0438": 184,
  "\u2581there": 185,
  "\u2581\u043f\u0440\u0430\u0432": 186,
  "\u2581\u0436\u0435": 187,
  "\u2581about": 188,
  "n": 189,
  "\u2581\u044d\u0442\u043e\u0439": 190,
  "\u2581session": 191,
  "\u2581who": 192,
  "\u2581\u0441\u043e": 193,
  "\u2581\u043e\u0442\u043d\u043e\u0448\u0435\u043d\u0438\u0438": 194,
  "\u2581so": 195,
  "A": 196,
  "\u2581\u0410": 197,
  "\"": 198,
  "\u2581\u0431\u044b\u0442\u044c": 199,
  "y": 200,
  "\u2581including": 201,
  "\u2581[": 202,
  "\u2581human": 203,
  "\u2581\u043f\u043e\u0434": 204,
  "\u2581them": 205,
  "\u2581\u0422\u044b": 206,
  "\u2581right": 207,
  "\u2581\u0431\u044b\u043b": 208,
  "\u2581more": 209,
  "\u2581\u0431\u043e\u043b\u0435\u0435": 210,
  "\u2581no": 211,
  "\u2581information": 212,
  "\u2581up": 213,
  "\u0443\u044e": 214,
  "\u258110": 215,
  "\u2581\u0432\u043e\u043f\u0440\u043e\u0441\u0430\u043c": 216,
  "\u2581\u043d\u043e": 217,
  "\u2581\u0433\u043e\u0434\u0443": 218,
  "\u2581resolution": 219,
  "\u2581What": 220,
  "\u25814": 221,
  "\u0432": 222,
  "\u2581\u043c\u043e\u0436\u0435\u0442": 223,
  "\u2581\u043c\u0435\u043d\u044f": 224,
  "\u2581women": 225,
  "\u2581\u0441\u0432\u044f\u0437\u0438": 226,
  "\u2581\u0436\u0435\u043d\u0449\u0438\u043d": 227,
  "\u2581national": 228,
  "\u044f": 229,
  "\u0441": 230,
  "\u2581\u041c\u044b": 231,
  "\u2581into": 232,
  "\u2581\u044d\u0442\u043e\u0433\u043e": 233,
  "\u2581\u0431\u044b\u043b\u0438": 234,
  "\u2581And": 235,
  "\u2581\u0434\u0435\u044f\u0442\u0435\u043b\u044c\u043d\u043e\u0441\u0442\u0438": 236,
  "]": 237,
  "\u043e\u0432": 238,
  "\u25815": 239,
  "\u2581\u0432\u0441\u0435\u0445": 240,
  "\u2581made": 241,
  "\u2581if": 242,
  "\u2581those": 243,
  "\u2581Convention": 244,
  "ed": 245,
  "\u2581\u041d\u0430": 246,
  "\u043d\u0430": 247,
  "\u2581go": 248,
  "\u2581\u0427\u0442\u043e": 249,
  "\u2581like": 250,
  "\u2581\u0432\u043e": 251,
  "\u2581time": 252,
  "b": 253,
  "\u2581any": 254,
  "\u2581General": 255,
  "\u2581\u0442\u0435\u043c": 256,
  "\u2581\u0435\u0441\u043b\u0438": 257,
  "\u2581\u2014": 258,
  "\u2581\u041e\u043d": 259,
  "\u0434": 260,
  "\u2581\u0423": 261,
  "\u2581Assembly": 262,
  "\u2581just": 263,
  "\u2581support": 264,
  "C": 265,
  "\u25816": 266,
  "\u2581\u0441\u0435\u0441\u0441\u0438\u0438": 267,
  "\u2581This": 268,
  "\u2581Commission": 269,
  "\u2581International": 270,
  "\u2581State": 271,
  "\u2581\u0432\u0440\u0435\u043c\u044f": 272,
  "\u2581shall": 273,
  "\u043b\u0430": 274,
  "\u0442": 275,
  "\u2581implementation": 276,
  "\u2581\u043c\u043d\u0435": 277,
  "\u2581him": 278,
  "\u2581\u043c\u0435\u0436\u0434\u0443": 279,
  "\u2581could": 280,
  "\u2581well": 281,
  "\u2581her": 282,
  "\u2581\u043a\u043e\u0433\u0434\u0430": 283,
  "\u2581\u0413\u0435\u043d\u0435\u0440\u0430\u043b\u044c\u043d": 284,
  "\u258115": 285,
  "\u2581\u0441\u043e\u043e\u0442\u0432\u0435\u0442\u0441\u0442\u0432\u0438\u0438": 286,
  "\u2581\u0440\u0430\u043c\u043a\u0430\u0445": 287,
  "\u2581activities": 288,
  "\u2581S": 289,
  "\u2581\u044f\u0432\u043b\u044f\u0435\u0442\u0441\u044f": 290,
  "\u2581against": 291,
  "\u2581\u044d\u0442\u043e\u043c": 292,
  "\u2581\u041a": 293,
  "\u2581may": 294,
  "c": 295,
  "\u2581\u0440\u0435\u0437\u043e\u043b\u044e\u0446\u0438\u0438": 296,
  "\u2581new": 297,
  "General": 298,
  "\u2581\u0440\u0430\u0431\u043e\u0442\u044b": 299,
  "\u043a\u0430": 300,
  "\u2581through": 301,
  "\u2581\u041a\u043e\u043c\u0438\u0442\u0435\u0442": 302,
  "\u2581don": 303,
  "\u25817": 304,
  "\u2581meeting": 305,
  "\u2581\u0442\u043e\u043b\u044c\u043a\u043e": 306,
  "\u043d\u044b\u0445": 307,
  "\u2581between": 308,
  "\u2581Secretary": 309,
  "\u2581these": 310,
  "\u043d\u043e": 311,
  "\u2581need": 312,
  "\u2581\u0434\u043e\u043b\u0436\u043d\u044b": 313,
  "\u2581when": 314,
  "\u2581\u0434\u043d\u044f": 315,
  "\u2581some": 316,
  "\u2581\u043e\u043d\u0430": 317,
  "\u2581people": 318,
  "\u2581law": 319,
  "\u0442\u044c": 320,
  "\u2581\u0421\u043e\u0432\u0435\u0442\u0430": 321,
  "\u2581only": 322,
  "\u0435\u0448\u044c": 323,
  "\u2581\u0413": 324,
  "\u044b\u0445": 325,
  "\u2581\u00ab": 326,
  "\u2581\u041d\u0435": 327,
  "\u2581\u0446\u0435\u043b\u044f\u0445": 328,
  "\u0442\u043e": 329,
  "\u2581per": 330,
  "\u25818": 331,
  "\u258118": 332,
  "\u258112": 333,
  "\u2581than": 334,
  "\u2581take": 335,
  "\u258120": 336,
  "\u2581Government": 337,
  "\u2581our": 338,
  "\u2581system": 339,
  "\u25819": 340,
  "\u2581\u0421\u0428\u0410": 341,
  "\u2581here": 342,
  "\u2581\u0433": 343,
  "\u2581two": 344,
  "\u2581\u0442\u0435\u0431\u044f": 345,
  "\u258130": 346,
  "\u2581\u0441\u0442\u0440\u0430\u043d": 347,
  "\u2581\u043f\u0440\u0430\u0432\u0430": 348,
  "S": 349,
  "\u043e\u0435": 350,
  "\u2581\u0432\u043a\u043b\u044e\u0447\u0430\u044f": 351,
  "\u2581\u0431\u044b\u043b\u0430": 352,
  "\u2581That": 353,
  "\u2581\u043a\u043e\u0442\u043e\u0440\u044b\u0439": 354,
  "L": 355,
  "ll": 356,
  "\u044b\u0439": 357,
  "\u258111": 358,
  "\u2581\u0431\u0435\u0437\u043e\u043f\u0430\u0441\u043d\u043e\u0441\u0442\u0438": 359,
  "\u2581draft": 360,
  "\u2581over": 361,
  "\u2581b": 362,
  "\u2581\u043f\u043e\u043c\u043e\u0449\u0438": 363,
  "\u043b\u0438": 364,
  "\u2581children": 365,
  "\u2581Mr": 366,
  "\u2581C": 367,
  "\u2581\u044d\u0442\u0438\u0445": 368,
  "\u2581paragraph": 369,
  "\u2581\u0434\u043e\u043b\u043b": 370,
  "\u2581get": 371,
  "\u2581Conference": 372,
  "\u2581\u0441\u0438\u0441\u0442\u0435\u043c\u044b": 373,
  "\u043b": 374,
  "\u2581cooperation": 375,
  "\u2581\u0440\u0430\u0437": 376,
  "\u2581measures": 377,
  "\u2581\u043c": 378,
  "\u2581\u0433\u043e\u0441\u0443\u0434\u0430\u0440\u0441\u0442\u0432": 379,
  "\u2581All": 380,
  "\u2581Group": 381,
  "\u2581\u043f\u043e\u0441\u043b\u0435": 382,
  "\u258114": 383,
  "\u2581programme": 384,
  "\u2581country": 385,
  "\u2581use": 386,
  "\u043d\u044b\u0435": 387,
  "\u2581\u043c\u043e\u0433\u0443\u0442": 388,
  "\u2581\u041e": 389,
  "\u2581\u0431\u0443\u0434\u0443\u0442": 390,
  "\u044b\u0435": 391,
  "\u2581\u041a\u043e\u043d\u0432\u0435\u043d\u0446\u0438\u0438": 392,
  "\u2581said": 393,
  "\u2581\u0412\u044b": 394,
  "\u2581\u0434\u0435\u0442\u0435\u0439": 395,
  "\u2581organizations": 396,
  "\u2581first": 397,
  "\u2581years": 398,
  "\u2581\u041d\u043e": 399,
  "\u2581number": 400,
  "\u2581\u0435\u0449\u0435": 401,
  "er": 402,
  "\u2581Security": 403,
  "\u2581now": 404,
  "\u2581\u041a\u0430\u043a": 405,
  "\u2581security": 406,
  "\u2581must": 407,
  "\u2581\u043e\u0431\u0435\u0441\u043f\u0435\u0447\u0435\u043d\u0438\u044f": 408,
  "\u2581make": 409,
  "\u2581did": 410,
  "\u2581\u0441\u0432\u043e\u0435\u0439": 411,
  "\u2581\u043b\u0438": 412,
  "\u2581\u043e\u0441\u043d\u043e\u0432\u0435": 413,
  "\u0435\u0442": 414,
  "\u2581\u0447\u0435\u043c": 415,
  "\u2581\u043e\u0441\u0443\u0449\u0435\u0441\u0442\u0432\u043b\u0435\u043d\u0438\u044f": 416,
  "\u2581\u043f\u0435\u0440\u0438\u043e\u0434": 417,
  "ah": 418,
  "\u2581non": 419,
  "\u2581resources": 420,
  "\u2581\u043a\u043e\u0442\u043e\u0440\u044b\u0445": 421,
  "\u2581\u043e\u0431\u0440\u0430\u0437\u043e\u043c": 422,
  "\u2581she": 423,
  "\u2581\u043a\u0430\u0447\u0435\u0441\u0442\u0432\u0435": 424,
  "\u2581issues": 425,
  "\u044c": 426,
  "\u2581order": 427,
  "\u2581regional": 428,
  "\u258116": 429,
  "\u2581\u0413\u0435\u043d\u0435\u0440\u0430\u043b\u044c\u043d\u043e\u0439": 430,
  "\u043d\u043e\u0439": 431,
  "\u2581think": 432,
  "\u2581article": 433,
  "\u2581Development": 434,
  "\u258117": 435,
  "\u043d\u043e\u0433\u043e": 436,
  "ve": 437,
  "\u2581\u0447\u0430\u0441\u0442\u043d\u043e\u0441\u0442\u0438": 438,
  "\u2581cent": 439,
  "\u2581\u043f\u0440\u043e": 440,
  "\u2581want": 441,
  "\u2581\u0434\u0440\u0443\u0433\u0438\u0445": 442,
  "\u2581\u0414\u0430": 443,
  "\u258119": 444,
  "\u2581--": 445,
  "\u2581\u043c\u0435\u0440\u044b": 446,
  "\u2581\u0438\u043d\u0444\u043e\u0440\u043c\u0430\u0446\u0438\u0438": 447,
  "\u2581Rights": 448,
  "\u043d\u044b\u0439": 449,
  "\u258113": 450,
  "\u043a\u0438": 451,
  "\u2581\u0441\u043b\u0435\u0434\u0443\u0435\u0442": 452,
  "\u2581But": 453,
  "\u2581\u0441\u0435\u043a\u0440\u0435\u0442\u0430\u0440\u044f": 454,
  "\u2581efforts": 455,
  "\u2581further": 456,
  "\u2581\u043c\u0438\u0440\u0430": 457,
  "\u2581B": 458,
  "\u2581economic": 459,
  "\u2581\u0441\u0440\u0435\u0434\u0441\u0442\u0432": 460,
  "\u2581\u0433\u043e\u0441\u0443\u0434\u0430\u0440\u0441\u0442\u0432\u0430": 461,
  "\u2581got": 462,
  "\u2581\u043b\u0435\u0442": 463,
  "\u2581\u0438\u043c": 464,
  "\u2581\u0443\u0436\u0435": 465,
  "\u2581process": 466,
  "\u2581provide": 467,
  "\u2581\u0433\u043e\u0434": 468,
  ");": 469,
  "\u2581where": 470,
  "h": 471,
  "\u2581good": 472,
  "\u2581\u0442\u0435\u0431\u0435": 473,
  "\u2581financial": 474,
  "\u2581\u0443\u0440\u043e\u0432\u043d\u0435": 475,
  "\u043a\u0443": 476,
  "\u2581assistance": 477,
  "\u2581being": 478,
  "\".": 479,
  "\u2581us": 480,
  "\u2581\u0434\u043e\u043a\u043b\u0430\u0434": 481,
  "\u2581\u043d\u0435\u0442": 482,
  "\u2581before": 483,
  "\u2581provided": 484,
  "ly": 485,
  "\u2581\u043b\u0438\u0446": 486,
  "\u2581So": 487,
  "\u2581Special": 488,
  "\u2581party": 489,
  "\u2581\u0447": 490,
  "\u2581\u043f\u0440\u043e\u0433\u0440\u0430\u043c\u043c\u044b": 491,
  "\u2581see": 492,
  "\u2581decision": 493,
  "\u2581They": 494,
  "\u258131": 495,
  "\u2581services": 496,
  "\u2581\u0435\u0441\u0442\u044c": 497,
  "\u2581\u0433\u0440\u0443\u043f\u043f\u044b": 498,
  "\u2581\u0431\u0435\u0437": 499,
  "\u2581\u0415\u0441\u043b\u0438": 500,
  "\u2581\u0445\u043e\u0434\u0435": 501,
  "\u2581\u043a\u043e\u0442\u043e\u0440\u0430\u044f": 502,
  "\u2581December": 503,
  "\u043c\u0443": 504,
  "\u2581following": 505,
  "\u2581members": 506,
  "\u2581during": 507,
  "\u2581how": 508,
  "\u2581ensure": 509,
  "\u2581particular": 510,
  "\u0438\u0435": 511,
  "\u2581\u0434\u0435\u0439\u0441\u0442\u0432\u0438\u0439": 512,
  "\u2581within": 513,
  "\u2581\u0411\u0435\u0437\u043e\u043f\u0430\u0441\u043d\u043e\u0441\u0442\u0438": 514,
  "\u2581way": 515,
  "\u25812005": 516,
  "\u2581\u0440\u0435\u0441\u0443\u0440\u0441\u043e\u0432": 517,
  "\u2581social": 518,
  "\u2581\u0441\u043b\u0443\u0447\u0430\u0435": 519,
  "\u2581adopted": 520,
  "\u2581Human": 521,
  "\u044b\u043c": 522,
  "\u258121": 523,
  "\u2581\u0440\u0435\u0448\u0435\u043d\u0438\u044f": 524,
  "\u258125": 525,
  "\u2581public": 526,
  "\u2581level": 527,
  "\u2581\u043d\u0438\u0445": 528,
  "\u043d\u0430\u044f": 529,
  "\u2581period": 530,
  "\u2581\u043c\u0435\u0436\u0434\u0443\u043d\u0430\u0440\u043e\u0434\u043d\u043e\u0433\u043e": 531,
  "\u2581\u043a\u0442\u043e": 532,
  "\u2581\u043c\u043e\u0436\u043d\u043e": 533,
  "\u0435\u0439": 534,
  "\u2581\u043c\u0435\u0440": 535,
  "\u0438\u043c": 536,
  "th": 537,
  "\u2581Working": 538,
  "\u2581\u0441\u0442\u0440\u0430\u043d\u044b": 539,
  "\u2581held": 540,
  "\u2581\u044d\u0442\u043e\u0442": 541,
  "\u2581P": 542,
  "\u2581\u041f\u0440\u0438": 543,
  "\u2581As": 544,
  "\u2581\u044d\u0442\u0438": 545,
  "\u2581\u043f\u0440\u043e\u0442\u0438\u0432": 546,
  "\u2581health": 547,
  "\u258122": 548,
  "\u2581\u041a\u043e\u043c\u0438\u0442\u0435\u0442\u0430": 549,
  "\u2581\u0442\u0430\u043a\u0438\u0445": 550,
  "\u2581E": 551,
  "\u2581At": 552,
  "\u2581There": 553,
  "\u2581agenda": 554,
  "\u2581programmes": 555,
  "\u2581developing": 556,
  "\u043a": 557,
  "\u0410": 558,
  "\u2581back": 559,
  "\u2581relevant": 560,
  "\u2581\u041a\u043e\u043c\u0438\u0441\u0441\u0438\u0438": 561,
  "\u2581p": 562,
  "E": 563,
  "\u2581world": 564,
  "\u2581\u0441\u0432\u043e\u0438\u0445": 565,
  "\u2581both": 566,
  "\u2581legal": 567,
  "\u2581review": 568,
  "\u2581To": 569,
  "\u2581\u0441\u0432\u043e\u0438": 570,
  "\u0432\u0435\u0440": 571,
  "\u2581\u0441\u0442\u0430\u0442\u044c\u0438": 572,
  "o": 573,
  "\u2581\u043e\u0440\u0433\u0430\u043d\u0438\u0437\u0430\u0446\u0438\u0438": 574,
  "\u2581\u043d\u0430\u0441": 575,
  "\u2581\u043f\u043e\u0432\u0435\u0441\u0442\u043a\u0438": 576,
  "\u2581\u0434\u0435\u043a\u0430\u0431\u0440\u044f": 577,
  "\u2581\u043d\u0438": 578,
  "\u2581same": 579,
  "na": 580,
  "\u2581\u0432\u043d\u0438\u043c\u0430\u043d\u0438\u0435": 581,
  "\u2581after": 582,
  "\u2581\u0441\u0432\u043e\u044e": 583,
  "\u0437\u0430": 584,
  "\u2581\u0434\u043e\u043b\u0436\u0435\u043d": 585,
  "\u2581protection": 586,
  "\u25812000": 587,
  "\u2581staff": 588,
  "\u2581If": 589,
  "\u25812006": 590,
  "\u2581\u041a\u0440\u043e\u043c\u0435": 591,
  "i": 592,
  "\u2581training": 593,
  "\u043f\u043e": 594,
  "\u2581taken": 595,
  "\u0435\u043c": 596,
  "\u258123": 597,
  "\u258124": 598,
  "in": 599,
  "\u2581\u0441\u043e\u0442\u0440\u0443\u0434\u043d\u0438\u0447\u0435\u0441\u0442\u0432\u0430": 600,
  "\u2581special": 601,
  "\u043e\u043c\u0443": 602,
  "\u25812004": 603,
  "\u2581part": 604,
  "\u2581then": 605,
  "\u2581year": 606,
  "\u2581\u041e\u043d\u0430": 607,
  "\u2581\u0447\u0438\u0441\u043b\u0435": 608,
  "\u2581\u043f\u043e\u043b\u043e\u0436\u0435\u043d\u0438\u044f": 609,
  "\u25812002": 610,
  "\u25812008": 611,
  "\u2581regard": 612,
  "\u25812003": 613,
  "\u2581Well": 614,
  "\u2581recommendations": 615,
  "\u2581going": 616,
  "\u2581important": 617,
  "\u2581case": 618,
  "\u2581very": 619,
  "\u2581\u043f\u0440\u0430\u0432\u0430\u043c": 620,
  "\u2581education": 621,
  "\u2581most": 622,
  "\u2581policy": 623,
  "\u0430\u043c\u0438": 624,
  "\u2581\u0410\u043b": 625,
  "\u2581\u041d\u0435\u0442": 626,
  "\u2581peace": 627,
  "\u2581II": 628,
  "\u2581President": 629,
  "\u2581situation": 630,
  "\u2581action": 631,
  "\u2581persons": 632,
  "\u2581Parties": 633,
  "\u2581many": 634,
  "\u2581parties": 635,
  "\u2581\u0410\u0441\u0441\u0430\u043c\u0431\u043b\u0435\u0438": 636,
  "\u25812007": 637,
  "\u2581\u0432\u0430\u0441": 638,
  "\u2581management": 639,
  "\u2581\u0437\u0434\u0435\u0441\u044c": 640,
  "\u2581\u043f\u0440\u043e\u0441\u0442\u043e": 641,
  "\u2581working": 642,
  "\u2581\u0434\u0430\u043d\u043d\u044b\u0445": 643,
  "\u2581\u0437\u0430\u0449\u0438\u0442\u044b": 644,
  "\u0451": 645,
  "\u2581\u0432\u043e\u043f\u0440\u043e\u0441": 646,
  "\u2581For": 647,
  "\u2581reports": 648,
  "or": 649,
  "):": 650,
  "\u2581\u0446\u0435\u043b\u044c\u044e": 651,
  "\u2581used": 652,
  "\u25812009": 653,
  "\u2581respect": 654,
  "\u2581Programme": 655,
  "\u258128": 656,
  "\u2581item": 657,
  "\u2581community": 658,
  "\u2581place": 659,
  "\u2581accordance": 660,
  "\u2581\u043c\u0435\u0436\u0434\u0443\u043d\u0430\u0440\u043e\u0434\u043d\u044b\u0445": 661,
  "\u2581\u041e\u043d\u0438": 662,
  "\u2581continue": 663,
  "\u258126": 664,
  "\u2581life": 665,
  "\u2581\u0442\u0435\u0445": 666,
  "\u2581\u0441\u0435\u0431\u044f": 667,
  "\u2581She": 668,
  "\u2581three": 669,
  "\u0437": 670,
  "\u2581\u044d\u0442\u0438\u043c": 671,
  "\u25812001": 672,
  "\u2581because": 673,
  "\u2581among": 674,
  "\u2581political": 675,
  "\u2581possible": 676,
  "\u2581\u043f\u043e\u043b\u0438\u0442\u0438\u043a\u0438": 677,
  "\u0421": 678,
  "\u2581\u0417\u0430": 679,
  "\u2581\u043f\u0440\u043e\u0433\u0440\u0430\u043c\u043c": 680,
  "\u2581say": 681,
  "\u258127": 682,
  "\u2581\u0422\u0430\u043a": 683,
  "\u2581\u0443\u0441\u0438\u043b\u0438\u044f": 684,
  "\u2581data": 685,
  "\u2581\u0432\u043e\u043f\u0440\u043e\u0441\u044b": 686,
  "\u2581Republic": 687,
  "\u2581\u0432\u043e\u043f\u0440\u043e\u0441\u0443": 688,
  "\u2581D": 689,
  "\u0438\u043b\u0438": 690,
  "\u2581technical": 691,
  "\u2581set": 692,
  "\u2581d": 693,
  "\u2581effective": 694,
  "\u2581come": 695,
  "\u2581related": 696,
  "\u2581progress": 697,
  "\u2581without": 698,
  "\u2581\u0421\u043e\u0432\u0435\u0442": 699,
  "\u2581each": 700,
  "\u0438\u0442\u044c": 701,
  "\u2581\u043a\u043e\u0442\u043e\u0440\u043e\u0439": 702,
  "\u2581\u043f\u0440\u0430\u0432\u043e": 703,
  "\u0438\u0442": 704,
  "\u2581Economic": 705,
  "al": 706,
  "\u2581\u043d\u0430\u0441\u0435\u043b\u0435\u043d\u0438\u044f": 707,
  "\u2581view": 708,
  "\u2581June": 709,
  "\u2581\u0434\u043e\u043b\u0436\u043d\u0430": 710,
  "\u043d\u044b\u043c": 711,
  "\u2581basis": 712,
  "\u2581\u0440\u0430\u0431\u043e\u0442\u0435": 713,
  "\u2581\u0443\u0447\u0435\u0442\u043e\u043c": 714,
  "\u2581World": 715,
  "\u2581\u0435\u043c\u0443": 716,
  "\u2581established": 717,
  "\u2581\u0433\u0440\u0443\u043f\u043f\u0430": 718,
  "\u2581Office": 719,
  "\u2581\u0436\u0438\u0437\u043d\u0438": 720,
  ".1": 721,
  "\u2581down": 722,
  "\u2581\u0440\u0435\u0448\u0435\u043d\u0438\u0435": 723,
  "\u2581provisions": 724,
  "\u258129": 725,
  "\u2581c": 726,
  "\u2581F": 727,
  "\u2581since": 728,
  "\u2581capacity": 729,
  "\u2581\u043d\u0430\u0434": 730,
  "\u2581\u0431\u043e\u043b\u044c\u0448\u0435": 731,
  "\u2581\u0432\u0441\u0435\u0433\u043e": 732,
  "\u2581\u0438\u043d\u0444\u043e\u0440\u043c\u0430\u0446\u0438\u044e": 733,
  "\u2581even": 734,
  "\u2581areas": 735,
  "\u2581Social": 736,
  "\u2581\u043e\u0447\u0435\u043d\u044c": 737,
  "\u2581violence": 738,
  "\u2581end": 739,
  "\u2581\u043e\u0440\u0433\u0430\u043d\u043e\u0432": 740,
  "\u2581\u041d\u0443": 741,
  "\u2581\u0434\u0440\u0443\u0433\u0438\u0435": 742,
  "\u2581\u043f\u0440\u043e\u0435\u043a\u0442\u0430": 743,
  "\u2581Organization": 744,
  "\u2581help": 745,
  "\u0412": 746,
  "\u2581full": 747,
  "\u2581\u0441\u0442\u043e\u0440\u043e\u043d\u044b": 748,
  "\u2581\u043f\u0440\u043e\u0432\u0435\u0434\u0435\u043d\u0438\u044f": 749,
  "\u2581\u043a\u043e\u043c\u0438\u0442\u0435\u0442\u0430": 750,
  "\u2581\u0441\u0442\u0440\u0430\u043d\u0430\u0445": 751,
  "\u2581global": 752,
  "\u2581\u043f\u043e\u043c\u043e\u0449\u044c": 753,
  "\u2581\u0446\u0435\u043b\u0435\u0439": 754,
  "\u2581\u0433\u0434\u0435": 755,
  "\u2581consideration": 756,
  "\u0438\u0439": 757,
  "\u2581role": 758,
  "\u2581\u0432\u0430\u043c": 759,
  "\u2581\u044f\u0432\u043b\u044f\u044e\u0442\u0441\u044f": 760,
  "\u2581\u0440\u0430\u0431\u043e\u0442\u0443": 761,
  "\u2581long": 762,
  "\u2581general": 763,
  "\u2581\u043a\u043e\u0442\u043e\u0440\u043e\u0435": 764,
  "\u2581How": 765,
  "\u2581requirements": 766,
  "\u2581meetings": 767,
  "\u2581million": 768,
  "\u2581still": 769,
  "\u2581\u043e\u0431\u0435\u0441\u043f\u0435\u0447\u0438\u0442\u044c": 770,
  "\u043e\u043a": 771,
  "\u2581budget": 772,
  "\u2581group": 773,
  "\u043d\u0435": 774,
  "\u2581\u043e\u0434\u0438\u043d": 775,
  "\u043d\u043e\u0435": 776,
  "\u2581\u043d\u0430\u043c": 777,
  "\u2581\u043b\u044e\u0434\u0435\u0439": 778,
  "\u0440": 779,
  "\u2581nuclear": 780,
  "\u2581National": 781,
  "\u2581while": 782,
  "\u2581cases": 783,
  "\u2581\u0417": 784,
  "\u2581present": 785,
  "\u2581upon": 786,
  "\u2581\u043f\u0443\u043d\u043a\u0442": 787,
  "\u2581\u0442\u0435\u0447\u0435\u043d\u0438\u0435": 788,
  "\u2581On": 789,
  "\u2581\u043f\u0435\u0440\u0435": 790,
  "\u2581proposed": 791,
  "\u2581f": 792,
  "\u2581\u0437\u0430\u043a\u043e\u043d\u043e\u0434\u0430\u0442\u0435\u043b\u044c\u0441\u0442\u0432": 793,
  "\u2581considered": 794,
  "\u2581does": 795,
  "2": 796,
  "\u2581\u0434\u043e\u043a\u043b\u0430\u0434\u0430": 797,
  "\u2581Oh": 798,
  "\u2581\u041c": 799,
  "\u2581\u043f\u0440\u043e\u0431\u043b\u0435\u043c\u044b": 800,
  "\u2581\u043f\u043e\u0434\u0433\u043e\u0442\u043e\u0432\u043a\u0438": 801,
  "\u2581\u043f\u0440\u043e\u0435\u043a\u0442": 802,
  "\u2581means": 803,
  "\u2581July": 804,
  "\u2581God": 805,
  "\u043e\u0442": 806,
  "\u2581\u0434\u0435\u044f\u0442\u0435\u043b\u044c\u043d\u043e\u0441\u0442\u044c": 807,
  "\u25812010": 808,
  "\u0438\u043b": 809,
  "\u043d\u0438": 810,
  "\u2581\u043e\u0440\u0443\u0436\u0438\u044f": 811,
  "\u0436\u0430": 812,
  "\u2581Board": 813,
  "\u2581\u0441\u043e\u043e\u0442\u0432\u0435\u0442\u0441\u0442\u0432\u0443\u044e\u0449\u0438\u0445": 814,
  "\u2581available": 815,
  "\u2581\u0432\u043e\u043f\u0440\u043e\u0441\u043e\u0432": 816,
  "\u2581account": 817,
  "\u043b\u043e": 818,
  "\u0434\u0430": 819,
  "\u2581access": 820,
  "\u2581M": 821,
  "\u2581gender": 822,
  "\u0430\u043c": 823,
  "\u2581\u043a\u0430\u0441\u0430\u0435\u0442\u0441\u044f": 824,
  "\u2581high": 825,
  "\u2581document": 826,
  "\u2581October": 827,
  "\u2581\u0440\u0430\u0441\u0445\u043e\u0434\u043e\u0432": 828,
  "\u2581\u0432\u0441\u0451": 829,
  "\u2581May": 830,
  "\u2581\u0441\u043e\u0442\u0440\u0443\u0434\u043d\u0438\u043a\u043e\u0432": 831,
  "\u2581man": 832,
  "\u2581\u0440\u0435\u0437\u0443\u043b\u044c\u0442\u0430\u0442\u0435": 833,
  "\u2581\u0438\u0441\u043f\u043e\u043b\u044c\u0437\u043e\u0432\u0430\u043d\u0438\u044f": 834,
  "\u2581give": 835,
  "\u2581\u0432\u0441\u0435\u043c": 836,
  "\u2581Member": 837,
  "\u2581\u041f\u0440\u0435\u0434\u0441\u0435\u0434\u0430\u0442\u0435\u043b\u044f": 838,
  "\u2581\u043b\u0438\u0448\u044c": 839,
  "\u2581\u0412\u0441\u0435": 840,
  "I": 841,
  "\u2581September": 842,
  "\u2581\u043d\u0430\u0446\u0438\u043e\u043d\u0430\u043b\u044c\u043d\u044b\u0445": 843,
  "\u2581\u0434\u043e\u043b\u0436\u043d\u043e": 844,
  "\u0441\u0442\u0438": 845,
  "\u2581too": 846,
  "\u0438\u044f": 847,
  "\u2581\u043e\u0440\u0433\u0430\u043d\u0438\u0437\u0430\u0446\u0438\u0439": 848,
  "f": 849,
  "\u2581\u0437\u043d\u0430\u044e": 850,
  "\u2581\u0447\u0435\u0440\u0435\u0437": 851,
  "\u2581needs": 852,
  "\u2581based": 853,
  "\u2581appropriate": 854,
  "\u2581much": 855,
  "\u2581submitted": 856,
  "\u2581\u043e\u0446\u0435\u043d\u043a\u0438": 857,
  "1": 858,
  "\u2581\u0434\u0435\u043b\u0435": 859,
  "\u2581issue": 860,
  "\u2581day": 861,
  "\u2581institutions": 862,
  "\u2581\u0438\u043c\u0435\u0435\u0442": 863,
  "\u2581trade": 864,
  "\u2581Africa": 865,
  "\u2581policies": 866,
  "\u2581include": 867,
  "\u2581\u0442\u0430\u043a\u0438\u0435": 868,
  "\u2581noted": 869,
  "\u2581future": 870,
  "\u2581\u0437\u043d\u0430\u0447\u0435\u043d\u0438\u0435": 871,
  "\u0438\u0448\u044c": 872,
  "\u2581area": 873,
  "\u043d\u0443\u044e": 874,
  "\u2581\u0438\u044e\u043d\u044f": 875,
  "\u2581\u0414\u043b\u044f": 876,
  "\u2581\u0441\u043e\u0431\u043e\u0439": 877,
  "\u2581November": 878,
  "\u2581\u043e\u0441\u043e\u0431\u0435\u043d\u043d\u043e": 879,
  "\u2581\u041c\u043d\u0435": 880,
  "\u2581\u0443\u043f\u0440\u0430\u0432\u043b\u0435\u043d\u0438\u044f": 881,
  "\u044e\u0442": 882,
  "\u25811999": 883,
  "\u2581might": 884,
  "\u2581region": 885,
  "\u2581child": 886,
  "\u2581\u043f\u0440\u0438\u043d\u044f\u0442\u044c": 887,
  "\u043b\u0438\u0431\u043e": 888,
  "\u2581Court": 889,
  "\u2581\u0432\u0440\u0435\u043c\u0435\u043d\u0438": 890,
  "\u2581\u043f\u0443\u043d\u043a\u0442\u0435": 891,
  "\u2581really": 892,
  "\u2581last": 893,
  "\u2581given": 894,
  "\u2581concerned": 895,
  "\u2581family": 896,
  "\u2581\u0431\u043e\u0440\u044c\u0431\u0435": 897,
  "\u2581\u043f\u0440\u043e\u0446\u0435\u0441\u0441\u0430": 898,
  "\u2581groups": 899,
  "\u2581\u0443\u0440\u043e\u0432\u043d\u044f": 900,
  "\u2581\u0440\u0435\u0448\u0435\u043d\u0438\u0439": 901,
  "\u2581H": 902,
  "\u2581\u0441\u0440\u0435\u0434\u0441\u0442\u0432\u0430": 903,
  "\u2581\u0447\u0435\u043b\u043e\u0432\u0435\u043a": 904,
  "\u2581\u043f\u043e\u0434\u0434\u0435\u0440\u0436\u043a\u0438": 905,
  "\u2581\u043f\u043e\u0441\u043a\u043e\u043b\u044c\u043a\u0443": 906,
  "\u2581\u043d\u0435\u0433\u043e": 907,
  "\u2581above": 908,
  "\u2581Why": 909,
  "\u2581European": 910,
  "\u043d\u0443": 911,
  "\u2581\u043f\u043e\u0434\u0434\u0435\u0440\u0436\u043a\u0443": 912,
  "\u2581framework": 913,
  "\u2581something": 914,
  "\u2581never": 915,
  "\u2581\u043f\u0435\u0440\u0435\u0434": 916,
  "\u2581specific": 917,
  "up": 918,
  "\u2581Ye": 919,
  "\u0438\u0445": 920,
  "\u0432\u0430": 921,
  "\u2581\u0433\u043e\u0434\u044b": 922,
  "\u2581\u0440\u0435\u043a\u043e\u043c\u0435\u043d\u0434\u0430\u0446\u0438\u0438": 923,
  "\u2581\u043d\u0443\u0436\u043d\u043e": 924,
  "\u2581better": 925,
  "\u2581\u0432\u043e\u0437\u043c\u043e\u0436\u043d\u043e\u0441\u0442\u044c": 926,
  "\u2581\u043e\u0442\u043d\u043e\u0441\u0438\u0442\u0435\u043b\u044c\u043d\u043e": 927,
  "\u2581\u0434\u043e\u043a\u043b\u0430\u0434\u0435": 928,
  "\u2581\u0443\u0447\u0430\u0441\u0442\u0438\u0435": 929,
  "\u2581\u0447\u043b\u0435\u043d\u043e\u0432": 930,
  "\u2581\u0442\u0430\u043a\u043e\u0439": 931,
  "\u2581increase": 932,
  "\u2581\u043f\u0443\u0442\u0435\u043c": 933,
  "\u2581\u0434\u0430": 934,
  "\u2581\u0434\u0430\u0436\u0435": 935,
  "\u258150": 936,
  "\u2581didn": 937,
  "\u2581tell": 938,
  "\u2581necessary": 939,
  "\u2581delegation": 940,
  "\u2581\u0441\u043a\u0430\u0437\u0430\u043b": 941,
  "\u2581\u0433\u043e\u0434\u043e\u0432": 942,
  "\u2581plan": 943,
  "\u2581\u043d\u0435\u043e\u0431\u0445\u043e\u0434\u0438\u043c\u043e": 944,
  "\u2581developed": 945,
  "\u2581\u044d\u043a\u0441\u043f\u0435\u0440\u0442\u043e\u0432": 946,
  "\u0434\u0443": 947,
  "\u0436\u0438": 948,
  "\u2581\u041a\u043e\u043d\u0444\u0435\u0440\u0435\u043d\u0446\u0438\u0438": 949,
  "\u2581\u0440\u043e\u043b\u044c": 950,
  "\u2581importance": 951,
  "\u2581note": 952,
  "\u2581\u0433\u043e\u0432\u043e\u0440\u0438\u0442": 953,
  "\u2581\u0440\u0430\u0437\u043b\u0438\u0447\u043d\u044b\u0445": 954,
  "\u0434\u0438": 955,
  "\u2581\u043f\u0440\u0438\u043c\u0435\u043d\u0435\u043d\u0438\u044f": 956,
  "\u2581project": 957,
  "\u2581bodies": 958,
  ".\"": 959,
  "\u2581control": 960,
  "\u2581Do": 961,
  "\u0436": 962,
  "\u2581New": 963,
  "\u2581agreed": 964,
  "\u2581\u043a\u043e\u043c\u0438\u0442\u0435\u0442": 965,
  "\u2581\u041e\u0434\u043d\u0430\u043a\u043e": 966,
  "\u2581'": 967,
  "\u2581\u0442\u0430\u043c": 968,
  "\u2581\u0434\u043e\u0441\u0442\u0438\u0436\u0435\u043d\u0438\u044f": 969,
  "\u2581\u0414": 970,
  "\u043f": 971,
  "\u2581\u043e\u0431\u0440\u0430\u0437\u043e\u0432\u0430\u043d\u0438\u044f": 972,
  "\u2581various": 973,
  "\u2581\u043f\u0440\u0430\u0432\u0438\u0442\u0435\u043b\u044c\u0441\u0442\u0432\u0430": 974,
  "\u2581\u0438\u044e\u043b\u044f": 975,
  "\u2581local": 976,
  "\u25811998": 977,
  "\u0447": 978,
  "Add": 979,
  "\u2581\u0434\u0438\u0441\u043a\u0440\u0438\u043c\u0438\u043d\u0430\u0446\u0438\u0438": 980,
  "\u2581concerning": 981,
  "\u2581\u043f\u0443\u043d\u043a\u0442\u0430": 982,
  "\u25812011": 983,
  "\u2581question": 984,
  "\u2581\u041f": 985,
  "\u041c": 986,
  "\u2581person": 987,
  "\u2581required": 988,
  "\u2581own": 989,
  "\u2581L": 990,
  "\u043d\u043e\u043c": 991,
  "\u2581sustainable": 992,
  "\u2581\u041f\u0440\u0435\u0434\u0441\u0435\u0434\u0430\u0442\u0435\u043b\u044c": 993,
  "\u2581\u0432\u043e\u0437\u043c\u043e\u0436\u043d\u043e\u0441\u0442\u0438": 994,
  "\u2581little": 995,
  "\u2581\u043d\u0435\u0439": 996,
  "\u2581off": 997,
  "\u2581\u043f\u043e\u0440\u044f\u0434\u043a\u0435": 998,
  "\u2581different": 999,
  "\u0434\u0435": 1000,
  "\u043e\u0441\u0442\u0438": 1001,
  "\u2581\u0443\u0441\u043b\u0443\u0433": 1002,
  "\u2581\u041f\u0440\u043e": 1003,
  "\u0430\u0445": 1004,
  "\u2581\u043f\u0440\u0438\u043d\u044f\u0442\u0438\u044f": 1005,
  "\u2581additional": 1006,
  "\u2581\u0446\u0435\u043b\u0438": 1007,
  "\u2581levels": 1008,
  "\u2581mean": 1009,
  "\u0442\u0430": 1010,
  "\u2581\u0434\u0435": 1011,
  "\u2581requested": 1012,
  "\u0441\u043c": 1013,
  "\u2581secretariat": 1014,
  "\u2581\u043f\u0440\u0438\u0437\u044b\u0432\u0430\u0435\u0442": 1015,
  "\u2581Action": 1016,
  "\u2581\u0442": 1017,
  "\u2581\u0441\u0435\u0439\u0447\u0430\u0441": 1018,
  "\u2581However": 1019,
  "\u2581Women": 1020,
  "\u2581\u0434\u0435\u043b": 1021,
  "\u00bb": 1022,
  "\u2581\u043d\u0430\u0441\u0438\u043b\u0438\u044f": 1023,
  "\u2581\u043e\u043a\u0442\u044f\u0431\u0440\u044f": 1024,
  "\u2581\u0441\u0432\u043e\u0435\u043c": 1025,
  "on": 1026,
  "\u2581\u0434\u0435\u043d\u044c": 1027,
  "\u2581Protocol": 1028,
  "\u2581\u0441\u0432\u043e\u0435\u0433\u043e": 1029,
  "\u044f\u0442": 1030,
  "es": 1031,
  "\u043d\u044b\u043c\u0438": 1032,
  "\u2581whether": 1033,
  "\u2581\u043c\u043b\u043d": 1034,
  "\u2581\u0411": 1035,
  "\u0447\u0435": 1036,
  "\u25812013": 1037,
  "\u25811995": 1038,
  "\u25812012": 1039,
  "\u2581care": 1040,
  "\u2581\u043f\u0440\u0435\u0434\u0441\u0442\u0430\u0432\u0438\u0442\u044c": 1041,
  "\u2581second": 1042,
  "\u2581\u043f\u043e\u0442\u0435\u043d\u0446\u0438\u0430\u043b\u0430": 1043,
  "\u2581\u0441\u0432\u044f\u0437\u0430\u043d\u043d\u044b\u0445": 1044,
  "\u2581address": 1045,
  "\",": 1046,
  "\u2581\u0442\u043e\u0440\u0433\u043e\u0432\u043b\u0438": 1047,
  "\u2581authorities": 1048,
  "\u2581Law": 1049,
  "\u2581force": 1050,
  "\u2581change": 1051,
  "\u2581find": 1052,
  "\u2581\u0434\u0440\u0443\u0433\u0438\u043c\u0438": 1053,
  "\u2581\u0445\u043e\u0447\u0443": 1054,
  "\u2581\u0441\u0435\u043d\u0442\u044f\u0431\u0440\u044f": 1055,
  "\u2581current": 1056,
  "\u043b\u044f": 1057,
  "\u2581\u0441\u043b\u0443\u0447\u0430\u044f\u0445": 1058,
  "\u2581\u2013": 1059,
  "\u0438\u0442\u0435": 1060,
  "\u2581III": 1061,
  "\u2581\u043d\u0438\u043c": 1062,
  "\u2581April": 1063,
  "\u2581field": 1064,
  "\u2581My": 1065,
  "\u2581\u0442\u043e\u0442": 1066,
  "\u2581\u043e\u043a\u0440\u0443\u0436\u0430\u044e\u0449\u0435\u0439": 1067,
  "ay": 1068,
  "\u2581attention": 1069,
  "\u2581January": 1070,
  "\u2581\u0412\u043e": 1071,
  "\u2581\u043f\u0440\u043e\u0431\u043b\u0435\u043c": 1072,
  "\u2581sector": 1073,
  "\u2581000": 1074,
  "\u2581\u0432\u043d\u043e\u0432\u044c": 1075,
  "\u2581let": 1076,
  "\u2581\u043f\u0430\u0440": 1077,
  "\u2581\u0440\u0430\u0441\u0441\u043c\u043e\u0442\u0440\u0435\u043d\u0438\u044f": 1078,
  "\u2581G": 1079,
  "\u2581look": 1080,
  "\u0438\u0438": 1081,
  "\u2581\u0434\u0435\u043b\u0430": 1082,
  "\u2581\u043c\u0435\u0436\u0434\u0443\u043d\u0430\u0440\u043e\u0434\u043d\u043e\u0439": 1083,
  "\u2581\u0440\u0430\u0437\u0432\u0438\u0442\u0438\u0435": 1084,
  "\u2581environmental": 1085,
  "\u2581representative": 1086,
  "\u2581\u043f": 1087,
  "\u2581\u0424": 1088,
  "\u2581T": 1089,
  "\u2581police": 1090,
  "\u2581promote": 1091,
  "\u2581call": 1092,
  "\u2581put": 1093,
  "\u2581\u0414\u043e": 1094,
  "\u2581\u0440\u044f\u0434": 1095,
  "\u2581\u043f\u043e\u043a\u0430": 1096,
  "\u2581men": 1097,
  "\u25811994": 1098,
  "\u2581\u043f\u0440\u0430\u0432\u0438\u0442\u0435\u043b\u044c\u0441\u0442\u0432\u043e": 1099,
  "\u258140": 1100,
  "\u2581every": 1101,
  "\u2581consider": 1102,
  "\u2581water": 1103,
  "\u2581contained": 1104,
  "\u2581participation": 1105,
  "\u2581addition": 1106,
  "\u2581am": 1107,
  "\u2581poverty": 1108,
  "\u2581\u041a\u043e\u043c\u0438\u0441\u0441\u0438\u044f": 1109,
  "\u2581\u041e\u0442": 1110,
  "\u2581\u043c\u0435\u0440\u0435": 1111,
  "\u2581doing": 1112,
  "\u2581R": 1113,
  "r": 1114,
  "B": 1115,
  "\u2581\u043d\u043e\u044f\u0431\u0440\u044f": 1116,
  "\u2581impact": 1117,
  "\u2581\u0422\u043e": 1118,
  "\u2581approach": 1119,
  "\u0438\u044e": 1120,
  "\u043a\u0435": 1121,
  "\u2581\u043a\u043e\u043d\u0442\u0440\u043e\u043b\u044f": 1122,
  "\u2581why": 1123,
  "\u2581another": 1124,
  "\u2581already": 1125,
  "\u2581particularly": 1126,
  "\u2581\u043c\u0435\u043d\u0435\u0435": 1127,
  "\u2581\u043f\u0440\u043e\u0446\u0435\u043d\u0442\u043e\u0432": 1128,
  "\u2581\u0441\u0434\u0435\u043b\u0430\u0442\u044c": 1129,
  "\u2581Secretariat": 1130,
  "\u2581best": 1131,
  "\u2581\u043a\u043e\u0442\u043e\u0440\u043e\u043c": 1132,
  "\u2581results": 1133,
  "\u2581systems": 1134,
  "\u2581conflict": 1135,
  "\u2581\u044d\u0442\u043e\u043c\u0443": 1136,
  "\u2581legislation": 1137,
  "\u2581\u0441\u043e\u0433\u043b\u0430\u0441\u043d\u043e": 1138,
  "\u2581taking": 1139,
  "\u2581society": 1140,
  "\u2581Ok": 1141,
  "\u2581\u0437\u0430\u0441\u0435\u0434\u0430\u043d\u0438\u0438": 1142,
  "\u2581\u0434\u0432\u0443\u0445": 1143,
  "\u2581\u0440\u0430\u0437\u0432\u0438\u0442\u0438\u044e": 1144,
  "(": 1145,
  "\u2581context": 1146,
  "\u2581again": 1147,
  "\u25811997": 1148,
  "\u2581\u043d\u043e\u0432\u044b\u0445": 1149,
  "\u2581guy": 1150,
  "\u2581criminal": 1151,
  "\u2581\u043e\u0441\u0443\u0449\u0435\u0441\u0442\u0432\u043b\u0435\u043d\u0438\u044e": 1152,
  "\u0435\u0442\u0441\u044f": 1153,
  "\u2581\u0440\u0430\u0437\u0432\u0438\u0432\u0430\u044e\u0449\u0438\u0445\u0441\u044f": 1154,
  "\u2581re": 1155,
  "\u2581population": 1156,
  "\u2581love": 1157,
  "\u2581next": 1158,
  "\u2581\u043a\u043e\u0442\u043e\u0440\u043e\u0433\u043e": 1159,
  "\u2581rules": 1160,
  "\u043b\u0438\u0441\u044c": 1161,
  "\u2581Act": 1162,
  "\u2581\u043f\u0435\u0440\u0441\u043e\u043d\u0430\u043b\u0430": 1163,
  "\u2581humanitarian": 1164,
  "\u2581together": 1165,
  "3": 1166,
  "\u044e\u0441\u044c": 1167,
  "\u2581\u043e\u0441\u0443\u0449\u0435\u0441\u0442\u0432\u043b\u0435\u043d\u0438\u0435": 1168,
  "\u2581resolutions": 1169,
  "\u2581towards": 1170,
  "\u2581\u043f\u0440\u0435\u0434\u0441\u0442\u0430\u0432\u0438\u0442\u0435\u043b\u044c": 1171,
  "\u0415": 1172,
  "\u2581\u041f\u0443\u043d\u043a\u0442": 1173,
  "\u2581military": 1174,
  "\u2581\u0434\u0435\u0439\u0441\u0442\u0432\u0438\u044f": 1175,
  "\u2581weapons": 1176,
  "\u2581These": 1177,
  "\u2581\u0422": 1178,
  "\u2581found": 1179,
  "\u2581\u0434\u0432\u0430": 1180,
  "\u2581Governments": 1181,
  "\u2581\u043f\u0440\u043e\u0446\u0435\u0434\u0443\u0440\u044b": 1182,
  "\u2581\u0441\u0438\u043b\u0443": 1183,
  "\u2581took": 1184,
  "\u2581called": 1185,
  "\u2581\u043c\u043d\u043e\u0433\u043e": 1186,
  "\u2581\u0445\u043e\u0440\u043e\u0448\u043e": 1187,
  "\u2581request": 1188,
  "\u2581operations": 1189,
  "\u2581costs": 1190,
  "\u2581total": 1191,
  ".2": 1192,
  "\u2581monitoring": 1193,
  "\u2581least": 1194,
  "\u2581discrimination": 1195,
  "\u2581\u043e\u0431\u0449\u0435\u0433\u043e": 1196,
  "\u2581fact": 1197,
  "\u0432\u043e": 1198,
  "\u2581received": 1199,
  "D": 1200,
  "\u2581\u0441\u0435\u0441\u0441\u0438\u044f": 1201,
  "\u2581organization": 1202,
  "\u2581Rapporteur": 1203,
  "\u2581\u0445\u043e\u0442\u0435\u043b": 1204,
  "\u2581...": 1205,
  "\u2581member": 1206,
  "\u2581done": 1207,
  "\u2581relating": 1208,
  "\u0431": 1209,
  "\u25811996": 1210,
  "\u2581Fund": 1211,
  "\u2581\u0441\u0442\u0430\u0442\u044c\u0435": 1212,
  "\u2581\u041d": 1213,
  "\u2581representatives": 1214,
  "\u2581N": 1215,
  "\u2581\u0425\u043e\u0440\u043e\u0448\u043e": 1216,
  "\u2581Department": 1217,
  "\u2581concern": 1218,
  "\u043f\u0440\u0435\u0436\u043d\u0435\u043c\u0443": 1219,
  "\u2581V": 1220,
  "\u2581inter": 1221,
  "see": 1222,
  "\u0433\u0430": 1223,
  "\u2581African": 1224,
  "it": 1225,
  "\u2581procedures": 1226,
  "\u2581\u0425": 1227,
  "\u2581standards": 1228,
  "\u2581status": 1229,
  "\u2581decided": 1230,
  "\u2581course": 1231,
  "\u2581result": 1232,
  "\u2581subject": 1233,
  "\u2581\u0442\u0435": 1234,
  "\u2581\u0436\u0438\u0437\u043d\u044c": 1235,
  "\u0440\u0438": 1236,
  "\u2581provision": 1237,
  "\u2581thing": 1238,
  "\u2581\u0447\u0430\u0441\u0442\u0438": 1239,
  "\u2581Party": 1240,
  "\u2581\u0441\u0440\u0435\u0434\u0438": 1241,
  "\u2581\u043e\u0441\u043d\u043e\u0432\u043d\u044b\u0445": 1242,
  "\u2581When": 1243,
  "\u2581matter": 1244,
  "\u0448\u0430": 1245,
  "\u0436\u0435": 1246,
  "\u2581justice": 1247,
  "CN": 1248,
  "\u2581\u044d\u0442\u0443": 1249,
  "\u2581\u043c\u043e\u0433\u0443": 1250,
  "\u2581major": 1251,
  "\u2581\u043e\u0441\u0443\u0449\u0435\u0441\u0442\u0432\u043b\u0435\u043d\u0438\u0438": 1252,
  "\u2581\u043c\u0435\u0441\u0442\u043e": 1253,
  "\u2581reporting": 1254,
  "\u2581private": 1255,
  "\u2581With": 1256,
  "\u044b\u043c\u0438": 1257,
  "\u2581\u043d\u0430\u0441\u0442\u043e\u044f\u0449\u0435\u0435": 1258,
  "\u0434\u0443\u043c\u0430": 1259,
  "WP": 1260,
  "\u0442\u0435": 1261,
  "\u2581\u0415\u0433\u043e": 1262,
  "\u2581e": 1263,
  "\u2581\u0441\u0440\u0435\u0434\u044b": 1264,
  "\u2581expressed": 1265,
  "\u2581U": 1266,
  "\u2581March": 1267,
  "\u2581\u0432\u044b\u0448\u0435": 1268,
  "\u2581statement": 1269,
  "\u2581\u043e\u0431\u0435\u0441\u043f\u0435\u0447\u0435\u043d\u0438\u044e": 1270,
  "\u2581mandate": 1271,
  "\u2581therefore": 1272,
  "\u2581\u0443\u0447\u0440\u0435\u0436\u0434\u0435\u043d\u0438\u0439": 1273,
  "\u043a\u043e": 1274,
  "\u2581great": 1275,
  "\u2581\u0441\u0447\u0435\u0442": 1276,
  "\u2581\u0447\u0438\u0441\u043b\u0430": 1277,
  "\u2581i": 1278,
  "\u0441\u044c": 1279,
  "\u2581Article": 1280,
  "\u0435\u043d\u044c": 1281,
  "\u2581Executive": 1282,
  "\u043e\u0441\u0442\u044c": 1283,
  "\u2581\u043e\u0434\u043d\u043e\u0439": 1284,
  "\u2581\u0442\u0430\u043a\u0438\u043c": 1285,
  "\u2581Declaration": 1286,
  "\u2581continued": 1287,
  "\u2581believe": 1288,
  "\u2581\u043f\u043e\u043b\u043e\u0436\u0435\u043d\u0438\u0439": 1289,
  "\u2581comprehensive": 1290,
  "P": 1291,
  "\u2581\u0433\u0440\u0443\u043f\u043f": 1292,
  "\u2581projects": 1293,
  "\u2581included": 1294,
  "\u2581Report": 1295,
  "\u2581\u043e\u0442\u043c\u0435\u0447\u0430\u0435\u0442": 1296,
  "\u2581THE": 1297,
  "\u2581domestic": 1298,
  "\u2581establishment": 1299,
  "\u043d\u044b": 1300,
  "\u2581\u0441\u043e\u0434\u0435\u0439\u0441\u0442\u0432\u0438\u044f": 1301,
  "\u2581\u041a\u043e\u0433\u0434\u0430": 1302,
  "\u2581\u043c\u0430\u044f": 1303,
  "\u043e\u0431": 1304,
  "\u2581100": 1305,
  "\u2581\u0435\u0451": 1306,
  "\u2581February": 1307,
  "\u2581small": 1308,
  "\u2581\u043a\u043e\u043d\u0442\u0435\u043a\u0441\u0442\u0435": 1309,
  "\u2581\u041e\u041e\u041d": 1310,
  "\u2581\u0441\u0442\u0440\u0430\u043d\u0430\u043c": 1311,
  "\u2581\u043c\u0435\u0440\u043e\u043f\u0440\u0438\u044f\u0442\u0438\u0439": 1312,
  "\u2581\u044f\u043d\u0432\u0430\u0440\u044f": 1313,
  "\u2581\u043d\u0438\u0447\u0435\u0433\u043e": 1314,
  "\u0442\u044c\u0441\u044f": 1315,
  "\u2581\u0440\u0430\u0431\u043e\u0442\u0430": 1316,
  "\u2581existing": 1317,
  "\u2581environment": 1318,
  "\u2581\u0431": 1319,
  "un": 1320,
  "\u2581civil": 1321,
  "\u2581agencies": 1322,
  "\u2581assessment": 1323,
  "\u2581\u042d\u0442\u0438": 1324,
  "\u2581\u043f\u043e\u0442\u043e\u043c\u0443": 1325,
  "\u2581procedure": 1326,
  "\u2581meet": 1327,
  "\u2581\u043e\u043f\u0435\u0440\u0430\u0446\u0438\u0439": 1328,
  "\u2581\u0441\u043e\u0437\u0434\u0430\u043d\u0438\u044f": 1329,
  "\u0439\u0442\u0435": 1330,
  "\u2581\u0412\u043e\u0442": 1331,
  "\u2581\u0440\u0430\u0441\u0441\u043c\u043e\u0442\u0440\u0435\u043d\u0438\u0435": 1332,
  "\u2581\u0433\u043e\u0441\u0443\u0434\u0430\u0440\u0441\u0442\u0432\u043e": 1333,
  "\u2581\u0430\u043f\u0440\u0435\u043b\u044f": 1334,
  "\u25812.": 1335,
  "\u2581\u0410\u0441\u0441\u0430\u043c\u0431\u043b\u0435\u044f": 1336,
  "\u0443\u0442": 1337,
  "\u2581\u043e\u0434\u043d\u043e\u0433\u043e": 1338,
  "\u2581decisions": 1339,
  "\u2581\u0438\u043d\u0442\u0435\u0440\u0435\u0441\u0430\u0445": 1340,
  "\u2581\u0413\u0440\u0443\u043f\u043f\u0430": 1341,
  "\u2581home": 1342,
  "\u2581\u0421\u043f\u0430\u0441\u0438\u0431\u043e": 1343,
  "\u2581obligations": 1344,
  "\u0438\u0441\u044c": 1345,
  "\u2581regarding": 1346,
  "\u2581\u0441\u043e\u0442\u0440\u0443\u0434\u043d\u0438\u0447\u0435\u0441\u0442\u0432\u043e": 1347,
  "\u2581\u0441\u043e\u0432\u0435\u0449\u0430\u043d\u0438\u044f": 1348,
  "\u2581fully": 1349,
  "\u2581addressed": 1350,
  "\u2581conditions": 1351,
  "\u2581\u0440\u0435\u043a\u043e\u043c\u0435\u043d\u0434\u0430\u0446\u0438\u0439": 1352,
  "\u2581\u0420\u0430\u0431\u043e\u0447\u0435\u0439": 1353,
  "\u2581annex": 1354,
  "\u2581\u0431\u043e\u0440\u044c\u0431\u044b": 1355,
  "\u2581entitled": 1356,
  "\u0451\u043c": 1357,
  "\u2581cost": 1358,
  "\u2581\u0432\u043e\u0437\u043c\u043e\u0436\u043d\u043e": 1359,
  "\u2581problems": 1360,
  "\u2581things": 1361,
  "\u2581\u0438\u043c\u0435\u044e\u0442": 1362,
  "\u2581follow": 1363,
  "\u2581Is": 1364,
  "\u2581adoption": 1365,
  "\u2581\u0441\u0442\u0440\u0430\u043d\u0435": 1366,
  "\u2581\u043c\u043e\u0439": 1367,
  "\u2581\u043a\u0430\u0441\u0430\u044e\u0449\u0438\u0445\u0441\u044f": 1368,
  "\u0440\u0430": 1369,
  "\u2581\u0438\u043d\u0444\u043e\u0440\u043c\u0430\u0446\u0438\u044f": 1370,
  "\u2581Affairs": 1371,
  "\u2581\u043e\u0431\u044f\u0437\u0430\u0442\u0435\u043b\u044c\u0441\u0442\u0432": 1372,
  "\u2581\u0438\u0437\u043c\u0435\u043d\u0435\u043d\u0438\u044f": 1373,
  "\u2581\u043d\u0435\u043e\u0431\u0445\u043e\u0434\u0438\u043c\u043e\u0441\u0442\u044c": 1374,
  "\u2581light": 1375,
  ".5": 1376,
  "\u2581Ministry": 1377,
  "\u2581key": 1378,
  "\u2581de": 1379,
  "\u2581five": 1380,
  "\u2581\u0444\u0438\u043d\u0430\u043d\u0441\u0438\u0440\u043e\u0432\u0430\u043d\u0438\u044f": 1381,
  "\u0433": 1382,
  "\u2581practices": 1383,
  "\u2581UN": 1384,
  "\u2581age": 1385,
  "\u2581\u043a\u043e\u043e\u0440\u0434\u0438\u043d\u0430\u0446\u0438\u0438": 1386,
  "\u2581\u0420\u0435\u0441\u043f\u0443\u0431\u043b\u0438\u043a\u0438": 1387,
  "\u2581terms": 1388,
  "\u2581\u0440\u0430\u0437\u0440\u0430\u0431\u043e\u0442\u043a\u0438": 1389,
  "\u2581agreement": 1390,
  "\u2581\u043e\u043d\u043e": 1391,
  "\u2581\u043f\u0440\u043e\u0434\u043e\u043b\u0436\u0430\u0442\u044c": 1392,
  "\u2581\u0441\u0432\u043e\u0435": 1393,
  "%": 1394,
  "\u2581\u0441\u0442\u0440\u0430\u0442\u0435\u0433\u0438\u0438": 1395,
  "\u2581technology": 1396,
  "\u2581\u043c\u043e\u0433\u043b\u0438": 1397,
  "\u25811993": 1398,
  "\u2581\u0434\u0430\u043d\u043d\u044b\u0435": 1399,
  "\u2581yet": 1400,
  "\u2581principles": 1401,
  "\u2581risk": 1402,
  "\u2581One": 1403,
  "\u2581amount": 1404,
  "\u2581service": 1405,
  "\u2581around": 1406,
  "\u2581\u043f\u0440\u043e\u0446\u0435\u0441\u0441": 1407,
  "\u2581\u043d\u0438\u043a\u043e\u0433\u0434\u0430": 1408,
  "\u2581\u043b\u0438\u0446\u0430": 1409,
  "\u2581application": 1410,
  "\u2581\u043d\u0435\u0441\u043a\u043e\u043b\u044c\u043a\u043e": 1411,
  "\u2581\u0447\u0438\u0441\u043b\u043e": 1412,
  "\u2581\u043a\u043e": 1413,
  "\u2581\u041c\u0435\u0436\u0434\u0443\u043d\u0430\u0440\u043e\u0434\u043d\u043e\u0433\u043e": 1414,
  "\u2581\u0431\u044e\u0434\u0436\u0435\u0442\u0430": 1415,
  "\u2581\u0440\u0430\u0441": 1416,
  "\u2581\u0420\u0430\u0431\u043e\u0447\u0430\u044f": 1417,
  "\u2581\u0441\u0435\u0431\u0435": 1418,
  "\u043d\u044f": 1419,
  "\u2581\u044d\u0442\u0430": 1420,
  "\u0441\u0442": 1421,
  "\u2581\u043a\u0430\u0442\u0435\u0433\u043e\u0440\u0438\u0438": 1422,
  "\u2581\u0442\u0430\u043a\u043e\u0433\u043e": 1423,
  "\u2581responsibility": 1424,
  "\u2581due": 1425,
  "\u2581coordination": 1426,
  "\u2581contributions": 1427,
  "\u2581\u041f\u043e\u0447\u0435\u043c\u0443": 1428,
  "\u043d\u0438\u0431\u0443\u0434\u044c": 1429,
  ".3": 1430,
  "\u2581transport": 1431,
  "\u2581\u042d": 1432,
  "\u2581\u0434\u043e\u043a\u0443\u043c\u0435\u043d\u0442": 1433,
  "\u2581\u043d\u0435\u043f\u0440\u0430\u0432\u0438\u0442\u0435\u043b\u044c": 1434,
  "\u2581South": 1435,
  "\u2581consultations": 1436,
  "\u2581Who": 1437,
  "\u2581energy": 1438,
  "\u041a": 1439,
  "\u2581\u043e\u0431\u0449\u0435\u0441\u0442\u0432\u0430": 1440,
  "\u2581increased": 1441,
  "\u2581Now": 1442,
  "\u2581equipment": 1443,
  "\u2581personnel": 1444,
  "\u2581\u0437\u0430\u0441\u0435\u0434\u0430\u043d\u0438\u0439": 1445,
  "\u2581mechanisms": 1446,
  "\u2581thought": 1447,
  "to": 1448,
  "\u2581away": 1449,
  "\u2581\u0441\u043e\u043e\u0442\u0432\u0435\u0442\u0441\u0442\u0432\u0443\u044e\u0449\u0438\u0435": 1450,
  "\u2581Let": 1451,
  "\u2581\u0437\u0430\u0449\u0438\u0442\u0435": 1452,
  "\u2581rule": 1453,
  "\u2581\u0441\u0435\u0433\u043e\u0434\u043d\u044f": 1454,
  "\u2581\u0432\u0441\u0435\u0433\u0434\u0430": 1455,
  "\u2581\u0433\u043e\u0441\u0443\u0434\u0430\u0440\u0441\u0442\u0432\u0430\u043c\u0438": 1456,
  "\u2581Advisory": 1457,
  "\u2581\u0441\u0432\u043e\u0439": 1458,
  "\u2581\u043f\u0440\u0430\u0432\u0430\u0445": 1459,
  "\u2581\u0432\u044b\u043f\u043e\u043b\u043d\u0435\u043d\u0438\u044f": 1460,
  "\u2581\u0442\u0440\u0438": 1461,
  "\u2581\u043f\u0440\u0435\u0434\u0441\u0442\u0430\u0432\u0438\u0442\u0435\u043b\u0435\u0439": 1462,
  "\u2581\u0443\u0441\u0438\u043b\u0438\u0439": 1463,
  "\u2581\u0443\u0441\u0442\u043e\u0439\u0447\u0438\u0432\u043e\u0433\u043e": 1464,
  "\u2581\u0444\u0438\u043d\u0430\u043d\u0441\u043e\u0432\u044b\u0445": 1465,
  "\u258145": 1466,
  "\u0434\u043e": 1467,
  "\u2581response": 1468,
  "\u258100": 1469,
  "\u2581problem": 1470,
  "\u2581recent": 1471,
  "\u2581\u044d\u0444\u0444\u0435\u043a\u0442\u0438\u0432\u043d\u043e\u0441\u0442\u0438": 1472,
  "\u2581always": 1473,
  "\u2581\u043b\u0443\u0447\u0448\u0435": 1474,
  "\u2581victims": 1475,
  "\u2581\u041f\u043e\u0441\u043b\u0435": 1476,
  "\u0435\u043d\u0438\u044f": 1477,
  "\u043b\u044c": 1478,
  "\u2581until": 1479,
  "\u0431\u0430": 1480,
  "\u2581matters": 1481,
  "\u2581\u044f\u0434\u0435\u0440\u043d\u043e\u0433\u043e": 1482,
  "\u0438\u0437": 1483,
  "\u2581discussion": 1484,
  "\u2581\u043e\u0440\u0433\u0430\u043d\u0438\u0437\u0430\u0446\u0438\u044f\u043c\u0438": 1485,
  "\u2581\u0438\u043c\u0435\u043d\u0438": 1486,
  "\u2581clear": 1487,
  "\u2581\u0446\u0435\u043b\u043e\u043c": 1488,
  "\u2581\u0432\u043e\u043f\u0440\u043e\u0441\u0430": 1489,
  "\u2581\u043f\u043e\u0442\u0440\u0435\u0431\u043d\u043e\u0441\u0442\u0435\u0439": 1490,
  "T": 1491,
  "\u0448": 1492,
  "\u2581OF": 1493,
  "\u2581\u043d\u0438\u043c\u0438": 1494,
  "\u266a": 1495,
  "\u2581\u0432\u043e\u0437\u043c\u043e\u0436\u043d\u043e\u0441\u0442\u0435\u0439": 1496,
  "\u2581food": 1497,
  "\u2581night": 1498,
  "AC": 1499,
  "\u2581provides": 1500,
  "st": 1501,
  "\u2581\u043a\u0430\u0441\u0430\u044e\u0449\u0438\u0435\u0441\u044f": 1502,
  "\u043b\u0430\u0441\u044c": 1503,
  "\u2581improve": 1504,
  "\u2581\u043a\u043e\u0442\u043e\u0440\u044b\u043c": 1505,
  "\u2581\u0435\u0439": 1506,
  "\u25812014": 1507,
  "\u2581implement": 1508,
  "uck": 1509,
  "\u2581Union": 1510,
  "\u2581having": 1511,
  "\u2581W": 1512,
  "\u0447\u0438": 1513,
  "\u2581\u043e\u0431\u0435\u0441\u043f\u0435\u0447\u0435\u043d\u0438\u0435": 1514,
  "\u2581\u0447\u0435\u0433\u043e": 1515,
  "ers": 1516,
  "\u2581\u0432\u043c\u0435\u0441\u0442\u0435": 1517,
  "\u2581para": 1518,
  "\u2581Don": 1519,
  "\u2581business": 1520,
  "\u2581\u0413\u0440\u0443\u043f\u043f\u044b": 1521,
  "\u2581\u0421\u0442\u043e\u0440\u043e\u043d": 1522,
  "\u2581name": 1523,
  "\u2581\u043e\u0434\u043d\u0430\u043a\u043e": 1524,
  "\u2581days": 1525,
  "\u2581\u0440\u0430\u0437\u0440\u0430\u0431\u043e\u0442\u043a\u0435": 1526,
  "\u2581crime": 1527,
  "\u2581point": 1528,
  "\u2581His": 1529,
  "\u2581documents": 1530,
  "\u2581\u0421\u043f\u0435\u0446\u0438\u0430\u043b\u044c\u043d\u044b\u0439": 1531,
  "\u2581O": 1532,
  "\u044e\u0442\u0441\u044f": 1533,
  "\u0435\u043d": 1534,
  "\u2581Palestinian": 1535,
  "\u0432\u0438\u043d": 1536,
  "\u2581\u043f\u043e\u043b\u043e\u0436\u0435\u043d\u0438\u0435": 1537,
  "\u258135": 1538,
  "k": 1539,
  "\u2581\u0442\u0440\u0443\u0434\u0430": 1540,
  "\u2581\u043f\u0440\u043e\u0446\u0435\u043d\u0442\u0430": 1541,
  "\u2581\u043f\u043e\u0432\u044b\u0448\u0435\u043d\u0438\u044f": 1542,
  "\u2581\u043b\u0438\u043a\u0432\u0438\u0434\u0430\u0446\u0438\u0438": 1543,
  "\u2581\u0441\u043b\u0435\u0434\u0443\u044e\u0449\u0438\u0435": 1544,
  "\u2581\u043b\u0438\u0431\u043e": 1545,
  "\u2581\u043f\u0440\u043e\u0435\u043a\u0442\u043e\u0432": 1546,
  "\u2581especially": 1547,
  "\u2581\u0433\u043e\u0441\u0443\u0434\u0430\u0440\u0441\u0442\u0432\u0430\u043c": 1548,
  "\u2581\u0441\u043a\u0430\u0437\u0430\u0442\u044c": 1549,
  "\u2581reported": 1550,
  "\u2581\u0440\u0435\u0431\u0435\u043d\u043a\u0430": 1551,
  "\u2581space": 1552,
  "\u2581several": 1553,
  "\u2581become": 1554,
  "\u2581\u0440\u0435\u0433\u0438\u043e\u043d\u0430\u043b\u044c\u043d\u044b\u0445": 1555,
  "\u2581strengthen": 1556,
  "\u2581\u0440\u0435\u0430\u043b\u0438\u0437\u0430\u0446\u0438\u0438": 1557,
  "\u2581example": 1558,
  "governmental": 1559,
  "\u2581prepared": 1560,
  "\u2581\u0428": 1561,
  "\u2581anything": 1562,
  "\u2581\u043f\u0440\u0435\u0434\u0441\u0442\u0430\u0432\u043b\u0435\u043d\u0438\u044f": 1563,
  "\u2581practice": 1564,
  "4": 1565,
  "\u2581four": 1566,
  "\u2581Representative": 1567,
  "\u2581wish": 1568,
  "\u2581post": 1569,
  "\u2581production": 1570,
  "\u2581\u043f\u043e\u0434\u0434\u0435\u0440\u0436\u0430\u043d\u0438\u044e": 1571,
  "\u2581body": 1572,
  "\u2581\u0442\u043e\u043c\u0443": 1573,
  "\u2581\u043f\u0440\u0435\u0434\u0443\u0441\u043c\u0430\u0442\u0440\u0438\u0432\u0430\u0435\u0442": 1574,
  "\u2581\u043a\u043e\u043d\u0444\u0435\u0440\u0435\u043d\u0446\u0438\u0438": 1575,
  "\u2581\u0442\u0430\u043a\u043e\u0435": 1576,
  "\u042f": 1577,
  "\u2581whole": 1578,
  "\u2581\u0442\u043e\u0436\u0435": 1579,
  "\u0438\u0441\u0442": 1580,
  "\u2581\u043f\u0440\u0435\u0434\u043b\u043e\u0436\u0435\u043d\u0438\u044f": 1581,
  "\u2581\u0443\u043a\u0440\u0435\u043f\u043b\u0435\u043d\u0438\u044f": 1582,
  "\u2581\u043a\u043e\u0442\u043e\u0440\u0443\u044e": 1583,
  "\u2581\u0445\u0430\u0440\u0430\u043a\u0442\u0435\u0440": 1584,
  "\u2581told": 1585,
  "\u2581free": 1586,
  "\u2581able": 1587,
  "\u2581\u0437\u0434\u043e\u0440\u043e\u0432\u044c\u044f": 1588,
  "\u2581common": 1589,
  "\u2581date": 1590,
  "\u2581K": 1591,
  "\u2581\u043c\u0438\u0440\u0435": 1592,
  "\u2581August": 1593,
  "\u2581proposal": 1594,
  "\u2581today": 1595,
  "\u2581\u043e\u0431\u044f\u0437\u0430\u0442\u0435\u043b\u044c\u0441\u0442\u0432\u0430": 1596,
  "term": 1597,
  "\u2581\u0418\u0437": 1598,
  "\u2581school": 1599,
  "\u0430\u0442\u044c": 1600,
  "\u2581\u0441\u0442\u0440\u0430\u043d\u0430\u043c\u0438": 1601,
  "\u2581\u0443\u0447\u0430\u0441\u0442\u0438\u044f": 1602,
  "\u2581An": 1603,
  "\u2581Mission": 1604,
  "\u2581\u041f\u043e\u044d\u0442\u043e\u043c\u0443": 1605,
  "\u2581funds": 1606,
  "\u2581\u0438\u043c\u044f": 1607,
  "based": 1608,
  "\u2581leave": 1609,
  "\u2581\u043a\u0430\u043a\u043e\u0439": 1610,
  "\u2581regular": 1611,
  "\u2581main": 1612,
  "\u2581\u0440\u0430\u0441\u0441\u043c\u043e\u0442\u0440\u0435\u0442\u044c": 1613,
  "\u2581third": 1614,
  "\u2581planning": 1615,
  "\u2581however": 1616,
  "\u2581\u0445\u043e\u0442\u044f": 1617,
  "\u2581serious": 1618,
  "\u2581Chairman": 1619,
  "\u2581\u0437\u0440\u0435\u043d\u0438\u044f": 1620,
  "the": 1621,
  "\u0440\u0443": 1622,
  "\u2581kind": 1623,
  "\u2581research": 1624,
  "\u2581armed": 1625,
  "\u2581position": 1626,
  "\u2581\u043d\u0430\u0434\u043e": 1627,
  "\u2581recommended": 1628,
  "\u2581prevention": 1629,
  "\u2581\u0430\u0434\u043c\u0438\u043d\u0438\u0441\u0442\u0440\u0430\u0442\u0438\u0432\u043d\u044b": 1630,
  "\u2581\u0441\u0438\u0441\u0442\u0435\u043c": 1631,
  "\u2581challenges": 1632,
  "\u2581open": 1633,
  "\u2581develop": 1634,
  "\u2581\u0442\u0435\u043f\u0435\u0440\u044c": 1635,
  "\u2581\u0440\u0430\u0437\u043c\u0435\u0440\u0435": 1636,
  "\u2581providing": 1637,
  "\u2581\u0444\u0435\u0432\u0440\u0430\u043b\u044f": 1638,
  "\u2581acts": 1639,
  "\u2581\u0440\u0435\u0437\u0443\u043b\u044c\u0442\u0430\u0442\u043e\u0432": 1640,
  "\u2581\u043a\u043e\u043d\u0432\u0435\u043d\u0446\u0438\u0438": 1641,
  "\u2581sure": 1642,
  "\u2581Just": 1643,
  "\u2581\u0436\u0435\u043d\u0449\u0438\u043d\u044b": 1644,
  "\u043c\u0430": 1645,
  "\u2581\u0421\u043f\u0435\u0446\u0438\u0430\u043b\u044c\u043d\u043e\u0433\u043e": 1646,
  "\u2581\u043d\u0435\u043e\u0431\u0445\u043e\u0434\u0438\u043c\u043e\u0441\u0442\u0438": 1647,
  "\u043d\u0438\u0435": 1648,
  "\u043b\u044e": 1649,
  "\u2581\u0435\u0449\u0451": 1650,
  "\u2581\u043f\u0440\u0430\u0432\u0438\u043b": 1651,
  "\u2581\u043f\u0440\u0435": 1652,
  "\u25813.": 1653,
  "\u2581\u0440\u0435": 1654,
  "oka": 1655,
  "\u2581Are": 1656,
  "\u258132": 1657,
  "\u2581commitment": 1658,
  "\u2581\u0434\u0435\u043b\u043e": 1659,
  "\u2581ever": 1660,
  "\u0442\u0438": 1661,
  "\u2581\u043c\u0430\u0440\u0442\u0430": 1662,
  "\u0435\u0440": 1663,
  "\u2581\u043f\u043e\u0440": 1664,
  "\u2581treatment": 1665,
  "\u2581form": 1666,
  "\u2581significant": 1667,
  "\u2581\u0437\u0430\u0438\u043d\u0442\u0435\u0440\u0435\u0441\u043e\u0432\u0430\u043d\u043d\u044b": 1668,
  "\u2581\u0434\u043e\u043a\u0443\u043c\u0435\u043d\u0442\u043e\u0432": 1669,
  "\u2581land": 1670,
  "\u2581\u043f\u043b\u0430\u043d\u0435": 1671,
  "\u2581\u0420": 1672,
  "\u2581\u043f\u0440\u0435\u0434": 1673,
  "\u2581months": 1674,
  "\u2581\u0443\u0440\u043e\u0432\u043d\u044f\u0445": 1675,
  "\u0422": 1676,
  "\u2581\u043e\u0431\u0441\u043b\u0443\u0436\u0438\u0432\u0430\u043d\u0438\u044f": 1677,
  "\u2581proposals": 1678,
  "\u2581\u0441\u0432\u0435\u0434\u0435\u043d\u0438\u044e": 1679,
  "p": 1680,
  "\u2581\u043f\u0435\u0440\u0438\u043e\u0434\u0430": 1681,
  "\u2581co": 1682,
  "\u2581line": 1683,
  "\u2581Other": 1684,
  "\u2581office": 1685,
  "\u2581\u042d\u0442\u043e\u0442": 1686,
  "\u2581keep": 1687,
  "\u2581\u043b\u044e\u0434\u0438": 1688,
  "\u2581Look": 1689,
  "\u2581\u043f\u0440\u043e\u0432\u0435\u0434\u0435\u043d\u0438\u0435": 1690,
  "\u2581strategy": 1691,
  "\u041d": 1692,
  "\u2581money": 1693,
  "\u2581\u041a\u0442\u043e": 1694,
  "\u2581\u0440\u0435\u043a\u043e\u043c\u0435\u043d\u0434\u0443\u0435\u0442": 1695,
  "\u2581growth": 1696,
  "\u2581\u043f\u0440\u0438\u043d\u0446\u0438\u043f\u043e\u0432": 1697,
  "\u258148": 1698,
  "\u2581Meeting": 1699,
  "\u2581\u0441\u043e\u0437\u0434\u0430\u043d\u0438\u0435": 1700,
  "\u2581text": 1701,
  "\u2581\u043f\u0440\u043e\u0441\u0438\u0442": 1702,
  "\u2581Criminal": 1703,
  "\u2581\u043c\u0443\u0436\u0447\u0438\u043d": 1704,
  "\u2581\u043f\u043b\u0430\u043d\u0430": 1705,
  "\u2581\u043d\u0435\u043a\u043e\u0442\u043e\u0440\u044b\u0435": 1706,
  "\u2581approved": 1707,
  "\u2581\u0414\u043e\u043a\u043b\u0430\u0434": 1708,
  "\u2581bring": 1709,
  "\u2581\u0437\u0434\u0440\u0430\u0432\u043e\u043e\u0445\u0440\u0430\u043d\u0435\u043d\u0438\u044f": 1710,
  "\u2581\u0415": 1711,
  "\u2581past": 1712,
  "\u258160": 1713,
  "\u2581\u0434\u043e\u0441\u0442\u0443\u043f": 1714,
  "\u2581\u0440\u0435\u0437\u0443\u043b\u044c\u0442\u0430\u0442\u044b": 1715,
  "\u2581Some": 1716,
  "\u2581performance": 1717,
  "\u0414": 1718,
  "\u2581government": 1719,
  "\u2581actions": 1720,
  "\u2581\u043f\u0443\u0442\u0438": 1721,
  "\u2581far": 1722,
  "\u2581\u0436": 1723,
  "\u2581\u0441\u0442\u043e\u0440\u043e\u043d": 1724,
  "\u2581carried": 1725,
  "\u258133": 1726,
  "H": 1727,
  "\u2581questions": 1728,
  "\u2581responsible": 1729,
  "\u0436\u0434": 1730,
  "\u258137": 1731,
  "\u2581\u043c\u043e\u0433": 1732,
  "\u2581promotion": 1733,
  "\u2581IV": 1734,
  "\u2581instruments": 1735,
  "\u2581Code": 1736,
  "\u2581administrative": 1737,
  "\u2581\u0434\u0443\u043c\u0430\u044e": 1738,
  "\u2581death": 1739,
  "\u2581\u043f\u043e\u0447\u0435\u043c\u0443": 1740,
  "\u25811990": 1741,
  "\u2581\u0440\u0430\u0441\u0445\u043e\u0434\u044b": 1742,
  "\u2581\u043e\u043a\u0430\u0437\u0430\u043d\u0438\u044f": 1743,
  "\u2581section": 1744,
  "\u2581disarmament": 1745,
  "*": 1746,
  "\u2581study": 1747,
  "\u2581purpose": 1748,
  "\u2581terrorism": 1749,
  "\u2581quality": 1750,
  "\u2581strengthening": 1751,
  "\u2581\u043d\u0430\u0446\u0438\u043e\u043d\u0430\u043b\u044c\u043d\u043e\u043c": 1752,
  "\u2581\u043e\u0442\u0432\u0435\u0442\u0441\u0442\u0432\u0435\u043d\u043d\u043e\u0441\u0442\u0438": 1753,
  "\u2581\u043d\u0430\u0441\u0442\u043e\u044f\u0442\u0435\u043b\u044c\u043d\u043e": 1754,
  "\u041e": 1755,
  "\u2581involved": 1756,
  "\u043a\u043e\u0439": 1757,
  "\u2581\u0432\u043e\u0442": 1758,
  "\u2581initiatives": 1759,
  "\u2581\u0441\u043e\u0442\u0440\u0443\u0434\u043d\u0438\u0447\u0435\u0441\u0442\u0432\u0435": 1760,
  "\u2581individual": 1761,
  "\u0411": 1762,
  "\u2581\u0437\u043d\u0430\u0435\u0448\u044c": 1763,
  "\u2581\u043d\u0438\u0449\u0435\u0442\u044b": 1764,
  "\u2581talk": 1765,
  "\u2581rate": 1766,
  "\u2581expected": 1767,
  "\u2581Service": 1768,
  "\u2581biennium": 1769,
  "\u00bb.": 1770,
  "\u2581\u043f\u043e\u043b\u043d\u043e\u0441\u0442\u044c\u044e": 1771,
  "\u2581\u0434": 1772,
  "\u2581\u0434\u043e\u043a\u043b\u0430\u0434\u043e\u0432": 1773,
  "\u2581High": 1774,
  "\u2581needed": 1775,
  "\u258134": 1776,
  "\u2581agreements": 1777,
  "\u2581focus": 1778,
  "\u2581\u043f\u043e\u0432\u043e\u0434\u0443": 1779,
  "\u2581\u043f\u0440\u0435\u0434\u043b\u043e\u0436\u0435\u043d\u0438\u0435": 1780,
  "\u2581\u043e\u0442\u0432\u0435\u0442\u0441\u0442\u0432\u0435\u043d\u043d\u043e\u0441\u0442\u044c": 1781,
  "\u2581certain": 1782,
  "\u2581\u043d\u0435\u043a\u043e\u0442\u043e\u0440\u044b\u0445": 1783,
  "\u2581*": 1784,
  "\u2581official": 1785,
  "/2": 1786,
  "\u2581priority": 1787,
  "\u2581girls": 1788,
  "\u2581making": 1789,
  "\u2581\u043f\u0440\u043e\u0438\u0437\u0432\u043e\u0434\u0441\u0442\u0432\u0430": 1790,
  "\u2581\u0425\u043e\u0442\u044f": 1791,
  "\u043a\u043e\u0432": 1792,
  "\u2581knowledge": 1793,
  "\u2581\u0440\u0435\u0433\u0438\u043e\u043d\u0435": 1794,
  "\u0441\u043a\u043e\u0439": 1795,
  "\u2581less": 1796,
  "\u2581Israel": 1797,
  "ir": 1798,
  "\u2581Covenant": 1799,
  "\u2581violations": 1800,
  "\u2581behalf": 1801,
  "\u2581g": 1802,
  "\u2581mission": 1803,
  "\u2581lack": 1804,
  "\u2581power": 1805,
  "\u2581\u0434\u043e\u043a\u0443\u043c\u0435\u043d\u0442\u0430": 1806,
  "\u2581annual": 1807,
  "\u2581\u0441\u0432\u044f\u0437\u0430\u043d\u043d\u044b\u0435": 1808,
  "\u2581\u0441\u0442\u0435\u043f\u0435\u043d\u0438": 1809,
  "\u2581interest": 1810,
  "\u2581trafficking": 1811,
  "\u2581reduction": 1812,
  "\u2581Centre": 1813,
  "\u2581committed": 1814,
  "\u2581\u0442\u043e\u0447\u043a\u0438": 1815,
  "\u2581left": 1816,
  "\u2581\u043f\u0440\u043e\u0432\u0435\u0441\u0442\u0438": 1817,
  "\u2581While": 1818,
  "\u2581test": 1819,
  "\u2581equality": 1820,
  "\u2581establish": 1821,
  "\u258136": 1822,
  "\u2581\u043d\u0438\u0436\u0435": 1823,
  "\u2581\u0438\u043c\u0435\u0442\u044c": 1824,
  "\u2581\u043f\u043e\u0434\u0433\u043e\u0442\u043e\u0432\u043a\u0435": 1825,
  "\u2581\u043a\u043e\u043d\u0441\u0443\u043b\u044c\u0442\u0430\u0446\u0438\u0439": 1826,
  "\u2581sexual": 1827,
  "\u2581previous": 1828,
  "\u0441\u0442\u044c": 1829,
  "\u2581\u043f\u043e\u043c\u043e\u0449\u044c\u044e": 1830,
  "\u2581\u043e\u0431\u0441\u0443\u0436\u0434\u0435\u043d\u0438\u044f": 1831,
  "\u2581others": 1832,
  "\u2581\u043f\u043e\u0441\u0440\u0435\u0434\u0441\u0442\u0432\u043e\u043c": 1833,
  "\u2581\u0442\u043e\u0433\u0434\u0430": 1834,
  "\u2581below": 1835,
  "\u2581Information": 1836,
  "\u2581\u0414\u0435\u043a\u043b\u0430\u0440\u0430\u0446\u0438\u0438": 1837,
  "\u2581treaty": 1838,
  "\u2581\u042d\u0442\u0430": 1839,
  "\u043f\u0440\u0430\u0432": 1840,
  "\u2581\u0432\u043b\u0430\u0441\u0442\u0438": 1841,
  "\u2581few": 1842,
  "\u2581early": 1843,
  "\u2581\u043d\u0430\u0446\u0438\u043e\u043d\u0430\u043b\u044c\u043d\u043e\u0433\u043e": 1844,
  "\u2581objectives": 1845,
  "\u2581\u0441\u0444\u0435\u0440\u0435": 1846,
  "O": 1847,
  "\u2581arms": 1848,
  "\u2581\u043f\u0440\u043e\u0446\u0435\u0434\u0443\u0440": 1849,
  "\u2581reference": 1850,
  "\u2581\u0442\u0435\u0440\u0440\u0438\u0442\u043e\u0440\u0438\u0438": 1851,
  "\u0436\u0443": 1852,
  "\u2581\u041c\u043e\u0436\u0435\u0442": 1853,
  "\u2581\u0442\u0430": 1854,
  "\u2581came": 1855,
  "\u2581\u0434\u043e\u043a\u043b\u0430\u0434\u044b": 1856,
  "\u2581experts": 1857,
  "\u2581\u0438\u0441\u043f\u043e\u043b\u044c\u0437\u043e\u0432\u0430\u0442\u044c": 1858,
  "\u2581\u043f\u0440\u0435\u0434\u0441\u0442\u0430\u0432\u043b\u044f\u0435\u0442": 1859,
  "\u2581Europe": 1860,
  "\u2581informed": 1861,
  "\u2581\u0434\u043e\u043a\u0443\u043c\u0435\u043d\u0442\u0435": 1862,
  "\u0434\u0435\u0440": 1863,
  "\u2581\u043c\u043d\u043e\u0433\u0438\u0445": 1864,
  "\u2581Ms": 1865,
  "\u2581\u043a\u043e\u043d\u0441\u0443\u043b\u044c\u0442\u0430\u0446\u0438\u0438": 1866,
  "\u0448\u044c": 1867,
  "\u2581prevent": 1868,
  "\u043b\u0443": 1869,
  "\u2581Yes": 1870,
  "\u2581\u044d\u043a\u043e\u043d\u043e\u043c\u0438\u0447\u0435\u0441\u043a\u043e\u0433\u043e": 1871,
  "\u2581list": 1872,
  "\u2581Geneva": 1873,
  "\u2581income": 1874,
  "\u2581Agenda": 1875,
  "\u2581\u0434\u0440\u0443\u0433\u043e\u0439": 1876,
  "\u0432\u0435\u0442": 1877,
  "\u2581dialogue": 1878,
  "\u2581\u0443\u0447\u0430\u0441\u0442\u043d\u0438\u043a\u043e\u0432": 1879,
  "\u2581analysis": 1880,
  "\u2581\u043f\u043e\u043b\u0438\u0442\u0438\u0447\u0435\u0441\u043a\u0438\u0445": 1881,
  "\u2581un": 1882,
  "\u2581\u041b\u0430": 1883,
  "\u2581\u043c\u0435\u0445\u0430\u043d\u0438\u0437\u043c\u043e\u0432": 1884,
  "\u2581Thank": 1885,
  "\u2581\u0440\u0435\u0441\u0443\u0440\u0441\u044b": 1886,
  "\u2581real": 1887,
  "\u2581\u043f\u043b\u0430\u043d": 1888,
  "\u0431\u043e": 1889,
  "\u2581funding": 1890,
  "\u2581\u043e\u0431\u0437\u043e\u0440\u0430": 1891,
  "\u2581\u0441\u0447\u0438\u0442\u0430\u0435\u0442": 1892,
  "\u2581market": 1893,
  "\u2581read": 1894,
  "\u2581\u0441\u043e\u0433\u043b\u0430\u0448\u0435\u043d\u0438\u044f": 1895,
  "en": 1896,
  "\u2581\u0434\u0440\u0443\u0433": 1897,
  "\u2581\u043f\u043e\u0441\u043b\u0435\u0434\u0441\u0442\u0432\u0438\u0439": 1898,
  "building": 1899,
  "\u2581\u043f\u0440\u0435\u0434\u0441\u0442\u0430\u0432\u0438\u0442\u0435\u043b\u044f": 1900,
  "\u2581\u043f\u0440\u0435\u0441\u0442\u0443\u043f\u043d\u043e\u0441\u0442\u0438": 1901,
  "\u258139": 1902,
  "\u041b": 1903,
  "\u2581\u0434\u0435\u043b\u0430\u0442\u044c": 1904,
  "\u2581reform": 1905,
  "\u0443\u0447\u0430\u0441\u0442\u043d\u0438\u043a": 1906,
  "\u2581\u043f\u0435\u0440\u0432\u043e\u0439": 1907,
  "\u2581living": 1908,
  "\u2581achieve": 1909,
  "\u2581\u043f\u0440\u043e\u0433\u0440\u0430\u043c\u043c\u0430\u043c": 1910,
  "\u2581\u043f\u044f\u0442\u044c\u0434\u0435\u0441\u044f\u0442": 1911,
  "\u2581\u0438\u043c\u0435\u043d\u043d\u043e": 1912,
  "\u2581East": 1913,
  "\u2581\u0442\u0440\u0435\u0445": 1914,
  "\u2581cannot": 1915,
  "\u0430\u043d": 1916,
  "\u2581evidence": 1917,
  "\u2581strategies": 1918,
  "\u2581employment": 1919,
  "\u2581\u043c\u0438\u0440": 1920,
  "\u2581plans": 1921,
  "\u2581court": 1922,
  "\u2581dated": 1923,
  "\u2581organized": 1924,
  "\u2581peacekeeping": 1925,
  "\u2581\u043d\u043e\u0440\u043c": 1926,
  "\u0430\u043b": 1927,
  "\u2581war": 1928,
  "\u2581equal": 1929,
  ".6": 1930,
  "\u2581\u0412\u0418\u0427": 1931,
  "\u2581\u043f\u0440\u0430\u0432\u043e\u0441\u0443\u0434\u0438\u044f": 1932,
  "\u2581\u043e\u0442\u0432\u0435\u0442": 1933,
  "\u2581\u0443\u0447\u0440\u0435\u0436\u0434\u0435\u043d\u0438\u044f": 1934,
  "\u043b\u0441\u044f": 1935,
  "\u2581\u0443\u0441\u043b\u0443\u0433\u0438": 1936,
  "\u2581\u0434\u043e\u043b\u0436\u043d\u043e\u0441\u0442\u0438": 1937,
  "\u043f\u0443": 1938,
  "\u2581\u0432\u043a\u043b\u0430\u0434": 1939,
  "\u2581\u0441\u0435\u043c\u044c\u0438": 1940,
  "\u2581Review": 1941,
  "\u2581Agreement": 1942,
  "\u2581\u0410\u0444\u0440\u0438\u043a\u0438": 1943,
  "\u2581HIV": 1944,
  "\u2581operational": 1945,
  "\u2581Not": 1946,
  "\u0413": 1947,
  "\u2581Permanent": 1948,
  "M": 1949,
  "\u2581large": 1950,
  "\u0441\u0442\u0432\u043e": 1951,
  "\u2581\u0441\u043e\u043e\u0431\u0449\u0435\u0441\u0442\u0432\u0430": 1952,
  "\u0433\u043e\u0432\u043e\u0440\u0438\u0442": 1953,
  "\u2581requests": 1954,
  "\u0441\u0442\u0435\u0440": 1955,
  "\u2581\u0432\u0438\u0434\u0435": 1956,
  "\u043d\u0438\u044f": 1957,
  "\u2581\u0438\u0441\u043f\u043e\u043b\u044c\u0437\u043e\u0432\u0430\u043d\u0438\u0435": 1958,
  "\u2581torture": 1959,
  "\u2581\u0410\u0441\u0441\u0430\u043c\u0431\u043b\u0435\u0435": 1960,
  "\u2581exchange": 1961,
  "\u2581principle": 1962,
  "\u2581\u0441\u0438\u0442\u0443\u0430\u0446\u0438\u0438": 1963,
  "\u2581foreign": 1964,
  "an": 1965,
  "\u2581\u0432\u0438\u0434\u043e\u0432": 1966,
  "\u2581six": 1967,
  "\u2581notes": 1968,
  "ation": 1969,
  "\u2581evaluation": 1970,
  "\u2581mind": 1971,
  "use": 1972,
  "\u2581UNDP": 1973,
  "\u0441\u043a\u043e\u0433\u043e": 1974,
  "\u2581\u0434\u0440\u0443\u0433\u0438\u043c": 1975,
  "\u2581laws": 1976,
  "\u2581\u043e\u0431\u0449\u0435\u0439": 1977,
  "\u2581\u043d\u0430\u0446\u0438\u043e\u043d\u0430\u043b\u044c\u043d\u043e\u0439": 1978,
  "\u2581\u043a\u043e\u043d\u043a\u0440\u0435\u0442\u043d\u044b\u0445": 1979,
  "\u2581communication": 1980,
  "\u2581\u0442\u043e\u0431\u043e\u0439": 1981,
  "\u2581investment": 1982,
  "\u2581\u041d\u0438": 1983,
  "\u2581presented": 1984,
  "\u2581guidelines": 1985,
  "\u2581\u043c\u0435\u0436\u0434\u0443\u043d\u0430\u0440\u043e\u0434\u043d\u044b\u043c": 1986,
  "\u2581provisional": 1987,
  "\u2581asked": 1988,
  "\u2581nothing": 1989,
  "\u2581aspects": 1990,
  "\u0425": 1991,
  "\u25814.": 1992,
  "\u2581recommendation": 1993,
  "\u2581Treaty": 1994,
  "\u2581Come": 1995,
  "\u2581value": 1996,
  "at": 1997,
  "\u2581often": 1998,
  "\u043b\u0435": 1999,
  "level": 2000,
  "\u2581\u043c\u0435\u0436\u0434\u0443\u043d\u0430\u0440\u043e\u0434\u043d\u043e\u043c": 2001,
  "\u2581\u043e\u0431\u0437\u043e\u0440": 2002,
  "\u2581close": 2003,
  "=": 2004,
  "\u2581J": 2005,
  "\u2581safety": 2006,
  "\u2581old": 2007,
  "\u2581Lord": 2008,
  "\u2581\u0430\u0432\u0433\u0443\u0441\u0442\u0430": 2009,
  "\u2581\u043d\u0430\u043f\u0440\u0438\u043c\u0435\u0440": 2010,
  "\u0441\u0442\u0432\u0435\u043d\u043d\u044b\u0445": 2011,
  "\u2581\u0431\u043e": 2012,
  "\u2581Good": 2013,
  "\u0430\u043b\u0438": 2014,
  "\u2581Where": 2015,
  "\u0441\u0442\u0432\u0430": 2016,
  "\u2581young": 2017,
  "\u2581\u0432\u0442\u043e\u0440\u043e\u0439": 2018,
  "\u2581\u0441\u0443\u0434\u0430": 2019,
  "\u2581\u0441\u0438\u043b\u044b": 2020,
  "\u2581final": 2021,
  "\u2581\u0412\u0441\u0435\u043c\u0438\u0440\u043d\u043e\u0439": 2022,
  "\u2581protect": 2023,
  "\u2581Tribunal": 2024,
  "\u2581joint": 2025,
  "\u2581Division": 2026,
  "\u2581\u041f\u0420\u041e\u041e\u041d": 2027,
  "\u2581\u043d\u0435\u043c": 2028,
  "\u043e\u0447": 2029,
  "\u2581\u043f\u043e\u043b\u0438\u0446\u0438\u0438": 2030,
  "\u2581forms": 2031,
  "\u2581hours": 2032,
  "\u2581please": 2033,
  "\u2581\u041c\u0435\u0436\u0434\u0443\u043d\u0430\u0440\u043e\u0434\u043d\u043e\u0439": 2034,
  "\u2581nature": 2035,
  "\u2581\u043b\u044e\u0434\u044c\u043c\u0438": 2036,
  "\u2581Please": 2037,
  "\u2581Your": 2038,
  "\u2581Iraq": 2039,
  "\u2581feel": 2040,
  "\u2581\u0434\u0435\u043b\u0435\u0433\u0430\u0446\u0438\u044f": 2041,
  "\u2581informal": 2042,
  "\u2581Then": 2043,
  "\u2581\u0432\u043d\u0438\u043c\u0430\u043d\u0438\u044f": 2044,
  "\u2581\u0435": 2045,
  "\u2581greater": 2046,
  "\u2581\u0441\u0443\u0434": 2047,
  "\u0441\u0442\u0430\u0432": 2048,
  "\u2581\u0438\u043c\u0438": 2049,
  "\u2581hope": 2050,
  "\u2581experience": 2051,
  "\u2581\u043f\u043e\u0441\u043b\u0435\u0434\u0441\u0442\u0432\u0438\u044f": 2052,
  "\u2581\u043c\u0435\u0440\u043e\u043f\u0440\u0438\u044f\u0442\u0438\u044f": 2053,
  "\u2581\u042d\u0439": 2054,
  "\u0442\u0443": 2055,
  "\u2581understanding": 2056,
  "\u2581stated": 2057,
  "\u2581\u0415\u042d\u041a": 2058,
  "\u2581implementing": 2059,
  "\u258138": 2060,
  "\u2581issued": 2061,
  "\u2581v": 2062,
  "\u2581awareness": 2063,
  "le": 2064,
  "\u2581\u043f\u0440\u0438\u043b\u043e\u0436\u0435\u043d\u0438\u0435": 2065,
  "\u0418": 2066,
  "\u2581\u0441\u043e\u0446\u0438\u0430\u043b\u044c\u043d\u043e\u0433\u043e": 2067,
  "\u2581missions": 2068,
  "\u2581thus": 2069,
  "\u0430\u043b\u044c": 2070,
  "\u0423": 2071,
  "\u2581partners": 2072,
  "\u0447\u0430": 2073,
  "\u2581once": 2074,
  "\u2581natural": 2075,
  "\u2581act": 2076,
  "\u2581Did": 2077,
  "\u2581\u041f\u043e\u0434": 2078,
  "\u2581aimed": 2079,
  "\u2581referred": 2080,
  "\u043d\u0438\u0439": 2081,
  "tergovernmental": 2082,
  "\u2581effect": 2083,
  "\u258149": 2084,
  "\u2581\u043d\u043e\u0432\u044b\u0435": 2085,
  "\u2581\u041f\u0440\u043e\u0433\u0440\u0430\u043c\u043c\u044b": 2086,
  "\u2581\u043f\u0440\u043e\u0446\u0435\u0441\u0441\u0435": 2087,
  "F": 2088,
  "\u2581potential": 2089,
  "\u2581\u043f\u0440\u0430\u043a\u0442\u0438\u043a\u0438": 2090,
  "\u2581vehicle": 2091,
  "\u2581\u043e\u0434\u043d\u0438\u043c": 2092,
  "\u2581\u0421\u043e\u0435\u0434\u0438\u043d\u0435\u043d\u043d\u044b": 2093,
  "\u2581Can": 2094,
  "\u2581Director": 2095,
  "\u2581\u0441\u0434\u0435\u043b\u0430\u043b": 2096,
  "\u2581promoting": 2097,
  "\u2581Panel": 2098,
  "\u2581\u0432\u043e\u0437": 2099,
  "\u2581\u043f\u0440\u0438\u043d\u0446\u0438\u043f\u044b": 2100,
  "\u2581\u0442\u0443\u0442": 2101,
  "\u2581authority": 2102,
  "\u2581\u043c\u0435\u0441\u0442\u0430\u0445": 2103,
  "\u2581\u0432\u0437\u043d\u043e\u0441\u043e\u0432": 2104,
  "\u2581forces": 2105,
  "\u2581posts": 2106,
  "\u2581\u0433\u0440\u0430\u0436\u0434\u0430\u043d\u0441\u043a\u043e\u0433\u043e": 2107,
  "\u2581\u0441\u0440\u043e\u043a": 2108,
  "\u2581forward": 2109,
  "\u2581play": 2110,
  "\u2581\u0441\u043e\u0446\u0438\u0430\u043b\u044c\u043d\u043e\u0439": 2111,
  "\u2581\u0443\u0440\u043e\u0432\u0435\u043d\u044c": 2112,
  "\u2581\u043f\u0440\u0438\u043d\u044f\u043b": 2113,
  "\u2581\u043c\u043e\u043c\u0435\u043d\u0442": 2114,
  "\u0441\u043c\u043e\u0442\u0440": 2115,
  "\u2581\u043d\u0430\u0438\u0431\u043e\u043b\u0435\u0435": 2116,
  "\u2581author": 2117,
  "\u2581\u0441\u043e\u0441\u0442\u0430\u0432": 2118,
  "\u2581\u043f\u0440\u0438\u0432\u0435\u0442\u0441\u0442\u0432\u0443\u0435\u0442": 2119,
  "\u2581\u0411\u044b\u043b\u043e": 2120,
  "\u2581changes": 2121,
  "\u2581brought": 2122,
  "\u2581\u043f\u043e\u043b\u0443\u0447\u0438\u0442\u044c": 2123,
  "\u2581preparation": 2124,
  "\u2581property": 2125,
  "\u2581arrangements": 2126,
  "\u2581\u0438\u043d\u0444\u043e\u0440\u043c\u0430\u0446\u0438\u0435\u0439": 2127,
  "\u2581\u2022": 2128,
  "\u043d\u0438\u043a": 2129,
  "\u2581Implementation": 2130,
  "\u258144": 2131,
  "\u2581delegations": 2132,
  "\u2581seen": 2133,
  "\u2581\u0434\u043e\u0441\u0442\u0443\u043f\u0430": 2134,
  "\u0444": 2135,
  "\u2581Justice": 2136,
  "\u2581\u043f\u0440\u0438\u043d\u0438\u043c\u0430\u0442\u044c": 2137,
  "\u2581show": 2138,
  "\u2581fifty": 2139,
  "6": 2140,
  "\u2581hand": 2141,
  "\u0417": 2142,
  "\u2581statements": 2143,
  "\u2581\u043e\u043f\u0440\u0435\u0434\u0435\u043b\u0435\u043d\u0438\u044f": 2144,
  "\u2581facilitate": 2145,
  "\u2581using": 2146,
  "\u2581\u043f\u0440\u0435\u0441\u0442\u0443\u043f\u043b\u0435\u043d\u0438\u044f": 2147,
  "\u258147": 2148,
  "\u2581During": 2149,
  "\u2581\u043f\u0440\u0430\u0432\u043e\u0432\u043e\u0439": 2150,
  "\u0432\u0438": 2151,
  "\u2581detention": 2152,
  "\u2581building": 2153,
  "\u2581undertaken": 2154,
  "\u2581\u0441\u0432\u043e\u0431\u043e\u0434\u044b": 2155,
  "\u2581\u0443\u0433\u043e\u043b\u043e\u0432\u043d\u043e\u0433\u043e": 2156,
  "\u25811992": 2157,
  "\u2581\u0413\u0435\u043d\u0435\u0440\u0430\u043b\u044c\u043d\u044b\u0439": 2158,
  "\u2581conduct": 2159,
  "ic": 2160,
  "ch": 2161,
  ".4": 2162,
  "\u2581\u0441\u0438\u043b": 2163,
  "\u043d\u043e\u0441\u0442\u044c": 2164,
  "\u2581\u043d\u0430\u0440\u043e\u0434\u043e\u0432": 2165,
  "\u2581Re": 2166,
  "\u2581\u043a\u043e\u043c\u0438\u0441\u0441\u0438\u0438": 2167,
  "R": 2168,
  "\u2581won": 2169,
  "\u2581paragraphs": 2170,
  "\u2581pay": 2171,
  "\u2581\u0432\u0441\u0435\u0439": 2172,
  "\u2581\u0447\u0430\u0441\u0442\u044c": 2173,
  "\u2581basic": 2174,
  "\u2581labour": 2175,
  "\u2581crimes": 2176,
  "\u258142": 2177,
  "\u2581sent": 2178,
  "\u2581Russian": 2179,
  "\u2581implemented": 2180,
  "\u2581later": 2181,
  "\u2581\u0434\u043e\u043b\u0436\u043d\u043e\u0441\u0442\u0435\u0439": 2182,
  "\u2581everything": 2183,
  "\u2581submit": 2184,
  "\u043e\u0432\u0430\u0442\u044c": 2185,
  "\u043f\u0440\u0438": 2186,
  "\u2581supported": 2187,
  "\u2581\u043c\u043d\u043e\u0439": 2188,
  "\u2581\u043d\u0430\u0437\u0430\u0434": 2189,
  "\u0438\u043d": 2190,
  "\u2581\u0410\u0444\u0440\u0438\u043a\u0435": 2191,
  "\u0441\u043a\u0438\u0445": 2192,
  "\u043e\u043b\u044c": 2193,
  "\u2581\u043f\u0435\u0440\u0435\u0433\u043e\u0432\u043e\u0440\u043e\u0432": 2194,
  "\u2581air": 2195,
  "\u2581\u0441\u0435\u043a\u0442\u043e\u0440\u0430": 2196,
  "\u2581met": 2197,
  "\u2581\u0445\u043e\u0447\u0435\u0448\u044c": 2198,
  "\u2581financing": 2199,
  "\u258141": 2200,
  "\u2581\u043f\u044b\u0442\u043e\u043a": 2201,
  "\u2581\u043c\u0430\u0442\u0435\u0440\u0438\u0430\u043b\u043e\u0432": 2202,
  "\u2581\u0434\u0443\u043c\u0430\u043b": 2203,
  ".7": 2204,
  "\u2581\u0432\u0430\u0436\u043d\u043e\u0435": 2205,
  "\u2581\u0441\u043e\u0434\u0435\u0439\u0441\u0442\u0432\u0438\u0435": 2206,
  "\u0431\u0438": 2207,
  "\u2581state": 2208,
  "\u2581\u043e\u0431\u044a\u0435\u043c\u0430": 2209,
  "\u2581manner": 2210,
  "\u2581Under": 2211,
  "\u2581\u043f\u043e\u0441\u043b\u0435\u0434\u043d\u0438\u0435": 2212,
  "\u2581essential": 2213,
  "\u2581\u0442\u044b\u0441\u044f\u0447\u0435\u043b\u0435\u0442\u0438\u044f": 2214,
  "\u2581limited": 2215,
  "\u2581\u0444\u043e\u0440\u043c": 2216,
  "\u2581\u0443\u0441\u043b\u043e\u0432\u0438\u044f\u0445": 2217,
  "\u0431\u0435\u0440": 2218,
  "\u2581connection": 2219,
  "\u0441\u0442\u0440": 2220,
  "\u258165": 2221,
  "\u2581invited": 2222,
  "\u2581opportunity": 2223,
  "\u2581sessions": 2224,
  "\u2581pursuant": 2225,
  "\u2581Tom": 2226,
  "\u258151": 2227,
  "\u2581according": 2228,
  "\u2581\u0442\u0435\u0445\u043d\u043e\u043b\u043e\u0433\u0438\u0439": 2229,
  "\u2581\u0440\u0430\u0432\u0435\u043d\u0441\u0442\u0432\u0430": 2230,
  "\u2581\u043f\u043e\u0434\u0434\u0435\u0440\u0436\u043a\u0435": 2231,
  "\u2581articles": 2232,
  "\u2581either": 2233,
  "\u0440\u0435": 2234,
  "\u2581Plan": 2235,
  "\u2581\u0445\u0430\u0440\u0430\u043a\u0442\u0435\u0440\u0430": 2236,
  "\u0432\u0430\u0439": 2237,
  "\u2581goals": 2238,
  "\u2581remain": 2239,
  "\u2581\u0444\u0430\u043a\u0442": 2240,
  "\u2581understand": 2241,
  "\u2581coming": 2242,
  "org": 2243,
  "\u2581\u043e\u0434\u043d\u0430": 2244,
  "\u2581\u043f\u043e\u0434\u0445\u043e\u0434": 2245,
  "\u2581self": 2246,
  "\u2581\u043e\u0431\u044a\u0435\u043c": 2247,
  "\u2581lot": 2248,
  "\u2581Forum": 2249,
  "\u2581expert": 2250,
  "\u2581workers": 2251,
  "\u2581\u0442\u043e\u0439": 2252,
  "\u258143": 2253,
  "\u2581wanted": 2254,
  "\u2581\u0440\u043e\u043b\u0438": 2255,
  "\u043f\u0435\u0440": 2256,
  "\u2581Trade": 2257,
  "\u258146": 2258,
  "\u0432\u0435": 2259,
  "\u2581\u043e\u0445\u0440\u0430\u043d\u044b": 2260,
  "\u2581fundamental": 2261,
  "\u2581\u0441\u043e\u043a\u0440\u0430\u0449\u0435\u043d\u0438\u044f": 2262,
  "\u2581Global": 2263,
  "\u0451\u0440": 2264,
  "\u2581\u043e\u043a\u0430\u0437\u044b\u0432\u0430\u0442\u044c": 2265,
  "\u2581strategic": 2266,
  "\u2581benefits": 2267,
  "\u2581\u0438\u043d\u043e\u0441\u0442\u0440\u0430\u043d\u043d\u044b\u0445": 2268,
  "\u2581hear": 2269,
  "\u2581independent": 2270,
  "\u2581\u041d\u044c\u044e": 2271,
  "\u2581mechanism": 2272,
  "\u2581doesn": 2273,
  "\u2581recommends": 2274,
  "\u2581\u0441\u043b\u0438\u0448\u043a\u043e\u043c": 2275,
  "\u2581\u0438\u0441\u0441\u043b\u0435\u0434\u043e\u0432\u0430\u043d\u0438\u0439": 2276,
  "\u2581house": 2277,
  "\u2581Annex": 2278,
  "\u2581approval": 2279,
  "\u2581ask": 2280,
  "\u043e\u0440": 2281,
  "\u2581\u044d\u043a\u043e\u043d\u043e\u043c\u0438\u0447\u0435\u0441\u043a\u043e\u0439": 2282,
  "\u043d\u043e\u0441\u0442\u0438": 2283,
  "\u2581job": 2284,
  "\u2581Protection": 2285,
  "\u2581Cooperation": 2286,
  "\u2581\u0441\u0435\u043a\u0440\u0435\u0442\u0430\u0440\u044c": 2287,
  "\u2581soon": 2288,
  "\u2581\u043e\u0440\u0433\u0430\u043d\u044b": 2289,
  "\u2581\u043f\u0440\u043e\u0433\u0440\u0435\u0441\u0441\u0430": 2290,
  "\u2581\u043f\u043e\u0434\u0445\u043e\u0434\u0430": 2291,
  "\u2581\u0414\u0436\u0435": 2292,
  "N": 2293,
  "\u043b\u0430\u0434": 2294,
  "\u2581face": 2295,
  "\u0441\u0438": 2296,
  "\u2581deal": 2297,
  "\u0448\u0435": 2298,
  "\u2581York": 2299,
  "\u2581material": 2300,
  "\u2581\u043a\u043b\u0438\u043c\u0430\u0442\u0430": 2301,
  "\u2581proceedings": 2302,
  "\u2581indigenous": 2303,
  "\u2581\u0437\u0430\u044f\u0432\u043b\u0435\u043d\u0438\u0435": 2304,
  "\u043f\u0440\u043e": 2305,
  "\u2581negotiations": 2306,
  "\u25815.": 2307,
  "\u2581\u043f\u0443\u043d\u043a\u0442\u0443": 2308,
  "\u2581\u043c\u043e\u0436\u0435\u043c": 2309,
  "\u2581\u043e\u0446\u0435\u043d\u043a\u0435": 2310,
  "\u2581adequate": 2311,
  "\u0438\u043b\u0430": 2312,
  "\u2581contribute": 2313,
  "\u2581start": 2314,
  "\u2581items": 2315,
  "\u2581climate": 2316,
  "\u2581\u043f\u0440\u0438\u043d\u0438\u043c\u0430\u0435\u0442": 2317,
  "\u2581room": 2318,
  "\u2581freedom": 2319,
  "\u258152": 2320,
  "\u2581assist": 2321,
  "\u2581steps": 2322,
  "\u2581\u043f\u043e\u043b\u043d\u043e\u0439": 2323,
  "\u2581China": 2324,
  "\u2581\u043f\u043e\u043b\u043e\u0436\u0435\u043d\u0438\u0438": 2325,
  "20": 2326,
  "\u2581lead": 2327,
  "\u2581Millennium": 2328,
  "\u2581ensuring": 2329,
  "\u0433\u0438": 2330,
  "\u2581table": 2331,
  "\u2581\u0441\u043e\u0434\u0435\u0440\u0436\u0438\u0442\u0441\u044f": 2332,
  "\u2581\u041e\u0440\u0433\u0430\u043d\u0438\u0437\u0430\u0446\u0438\u044f": 2333,
  "\u2581\u044d\u043a\u043e\u043d\u043e\u043c\u0438\u0447\u0435\u0441\u043a\u0438\u0445": 2334,
  "\u2581\u0421\u043e": 2335,
  "\u2581contribution": 2336,
  "\u2581\u043d\u0430\u043a\u0430\u0437\u0430\u043d\u0438\u044f": 2337,
  "\u2581\u043c\u0435\u0436\u0434\u0443\u043d\u0430\u0440\u043e\u0434\u043d\u044b\u0435": 2338,
  "\u2581\u043f\u0440\u0435\u0436\u0434\u0435": 2339,
  "\u2581officers": 2340,
  "\u2581facilities": 2341,
  "\u2581affected": 2342,
  "\u2581\u0434\u0435\u043b\u0430\u043c": 2343,
  "\u2581\u043f\u0443\u043d\u043a\u0442\u043e\u043c": 2344,
  "\u2581\u043f\u043e\u043c\u043e\u0447\u044c": 2345,
  "\u2581\u0441\u043b\u0443\u0436\u0431\u044b": 2346,
  "\u2581effects": 2347,
  "\u2581concerns": 2348,
  "\u2581revised": 2349,
  "\u2581See": 2350,
  "\u2581\u0440\u0430\u0437\u043e\u0440\u0443\u0436\u0435\u043d\u0438\u044f": 2351,
  "\u2581outcome": 2352,
  "\u2581individuals": 2353,
  "\u2581compliance": 2354,
  "\u2581enough": 2355,
  "\u0432\u0438\u0434": 2356,
  "\u2581live": 2357,
  "\u2581\u043e\u0440\u0433\u0430\u043d\u0438\u0437\u0430\u0446\u0438\u044f": 2358,
  "\u2581Bank": 2359,
  "\u2581\u0441\u043e\u0434\u0435\u0439\u0441\u0442\u0432\u043e\u0432\u0430\u0442\u044c": 2360,
  "\u2581goods": 2361,
  "\u2581\u0441\u043c": 2362,
  "\u2581times": 2363,
  "\u258177": 2364,
  "\u2581\u0443\u0441\u043b\u043e\u0432\u0438\u044f": 2365,
  "\u2581\u043a\u0430\u0447\u0435\u0441\u0442\u0432\u0430": 2366,
  "\u2581\u0437\u0430\u0441\u0435\u0434\u0430\u043d\u0438\u044f": 2367,
  "\u2581sources": 2368,
  "\u2581Section": 2369,
  "\u2581\u0441\u043e\u0431\u043b\u044e\u0434\u0435\u043d\u0438\u044f": 2370,
  "\u2581\u041f\u0440\u043e\u0435\u043a\u0442": 2371,
  "\u25811,": 2372,
  "\u2581\u043f\u043e\u044d\u0442\u043e\u043c\u0443": 2373,
  "\u2581enhance": 2374,
  "\u2581\u0432\u0435\u0434\u044c": 2375,
  "\u2581wrong": 2376,
  "\u2581\u043c\u0435\u0436\u0434\u0443\u043d\u0430\u0440\u043e\u0434\u043d\u043e\u0435": 2377,
  "\u2581\u043e\u0431\u043b\u0430\u0441\u0442\u044f\u0445": 2378,
  "\u2581overall": 2379,
  "\u2581head": 2380,
  "\u2581\u043e\u0434\u043d\u043e": 2381,
  "\u2581\u0441\u043e\u0434\u0435\u0440\u0436\u0430\u043d\u0438\u044f": 2382,
  "\u2581\u0440\u043e\u0441\u0442\u0430": 2383,
  "\u2581follows": 2384,
  "\u2581\u0441\u043e\u0446\u0438\u0430\u043b\u044c\u043d\u044b\u0445": 2385,
  "\u2581commitments": 2386,
  "\u043c\u043e": 2387,
  "\u2581\u0441\u043e\u043e\u0431\u0449\u0435\u043d\u0438\u044f": 2388,
  "\u2581\u0432\u044b\u0440\u0430\u0436\u0430\u0435\u0442": 2389,
  "\u0435\u043b\u044c": 2390,
  "\u2581\u043a\u043e\u0442\u043e\u0440\u044b\u043c\u0438": 2391,
  "\u2581low": 2392,
  "\u2581multilateral": 2393,
  "\u2581medical": 2394,
  "\u2581\u0441\u0438\u0441\u0442\u0435\u043c\u0430": 2395,
  "\u2581\u043d\u0430\u0448\u0435\u0439": 2396,
  "\u2581views": 2397,
  "\u043c\u0435\u043d": 2398,
  "\u0442\u0435\u0440": 2399,
  "\u2581opportunities": 2400,
  "\u2581indicated": 2401,
  "\u0440\u043e\u0434": 2402,
  "\u2581recognized": 2403,
  "\u25811991": 2404,
  "\u2581conducted": 2405,
  "\u2581\u0441\u043b\u043e\u0432\u0430": 2406,
  "w": 2407,
  "\u041f": 2408,
  "\u2581Asia": 2409,
  "\u2581\u043f\u0440\u0438\u043d\u044f\u0442\u0438\u0435": 2410,
  "\u2581America": 2411,
  "\u2581heard": 2412,
  "as": 2413,
  "\u2581\u044d\u0444\u0444\u0435\u043a\u0442\u0438\u0432\u043d\u043e\u0433\u043e": 2414,
  "\u2581\u0434\u0432\u0443\u0445\u0433\u043e\u0434\u0438\u0447\u043d\u044b\u0439": 2415,
  "\u2581Regional": 2416,
  "\u2581\u043f\u043e\u043a\u0430\u0437\u0430\u0442\u0435\u043b\u0435\u0439": 2417,
  "\u2581\u043c\u0438\u043d": 2418,
  "\u0430\u0435\u0442": 2419,
  "\u2581mother": 2420,
  "\u2581\u043c\u0435\u0436\u0434\u0443\u043d\u0430\u0440\u043e\u0434\u043d\u044b\u043c\u0438": 2421,
  "\u2581\u0441\u0432\u043e\u0438\u043c": 2422,
  "\u2581\u043d\u0430\u0440\u0443\u0448\u0435\u043d\u0438\u044f": 2423,
  "\u2581\u0432\u0438\u0434\u0435\u043b": 2424,
  "\u2581\u043f\u043e\u0442\u0440\u0435\u0431\u043d\u043e\u0441\u0442\u0438": 2425,
  "\u2581comments": 2426,
  "\u2581happened": 2427,
  "\u2581\u043f\u0440\u0435\u0441\u0442\u0443\u043f\u043b\u0435\u043d\u0438\u0439": 2428,
  "00": 2429,
  "ie": 2430,
  "\u2581judicial": 2431,
  "\u2581\u0432\u0435\u0441\u044c\u043c\u0430": 2432,
  "\u2581\u043f\u043e\u043b\u0443\u0447\u0435\u043d\u0438\u044f": 2433,
  "\u0438\u0432": 2434,
  "\u2581\u043b\u0438\u043d\u0438\u0438": 2435,
  "\u2581return": 2436,
  "\u2581drug": 2437,
  "10": 2438,
  "\u2581share": 2439,
  "\u2581\u043d\u0435\u0435": 2440,
  "\u2581guidance": 2441,
  "\u2581transfer": 2442,
  "\u2581\u0441\u043e\u0432\u0435\u0449\u0430\u043d\u0438\u0435": 2443,
  "\u2581achieved": 2444,
  "\u2581Summit": 2445,
  "\u2581\u0437\u0430\u043c\u0435\u0447\u0430\u043d\u0438\u044f": 2446,
  "able": 2447,
  "\u2581Health": 2448,
  "\u2581increasing": 2449,
  "\u2581enforcement": 2450,
  "\u0432\u044b": 2451,
  "\u0438\u0442\u0441\u044f": 2452,
  "\u2581communications": 2453,
  "\u2581\u0437\u0430\u0441\u0435\u0434\u0430\u043d\u0438\u0435": 2454,
  "\u2581integrated": 2455,
  "\u2581\u0440\u0430\u0431\u043e\u0447\u0438\u0445": 2456,
  "\u2581father": 2457,
  "\u2581direct": 2458,
  "\u2581\u043f\u0440\u043e\u0444\u0435\u0441\u0441\u0438\u043e\u043d\u0430\u043b\u044c\u043d\u043e": 2459,
  "\u2581Constitution": 2460,
  "\u2581officials": 2461,
  "\u2581\u043c\u043e\u0436\u0435\u0448\u044c": 2462,
  "\u043b\u0435\u0442": 2463,
  "\u2581\u043c\u043e\u0435\u0439": 2464,
  "\u043d\u0438\u043c\u0430": 2465,
  "\u2581\u043f\u043e\u0434\u0433\u043e\u0442\u043e\u0432\u043a\u0443": 2466,
  "\u2581\u0437\u0430\u043a\u043e\u043d\u0430": 2467,
  "\u2581alia": 2468,
  "\u2581Of": 2469,
  "\u2581By": 2470,
  "\u2581\u043c\u043d\u043e\u0433\u0438\u0435": 2471,
  "\u2581\u0431\u043b\u0430\u0433\u043e\u0434\u0430\u0440\u044f": 2472,
  "\u2581\u0443\u0447\u0435\u0442\u0430": 2473,
  "\u0424": 2474,
  "\u2581offices": 2475,
  "\u2581\u0441\u043e\u0441\u0442\u0430\u0432\u0430": 2476,
  "\u2581\u0442\u0435\u0445\u043d\u0438\u0447\u0435\u0441\u043a\u043e\u0439": 2477,
  "\u258155": 2478,
  "\u2581=": 2479,
  "\u2581themselves": 2480,
  "\u2581\u0430\u043d\u0430\u043b\u0438\u0437\u0430": 2481,
  "\u2581indicators": 2482,
  "\u0442\u044b": 2483,
  "\u2581\u0421\u043e\u0433\u043b\u0430\u0441\u043d": 2484,
  "\u2581\u043f\u0440\u043e\u0433\u0440\u0435\u0441\u0441": 2485,
  "\u0447\u043b\u0435\u043d\u043e\u0432": 2486,
  "\u2581\u043d\u0430\u0447\u0430\u043b\u0430": 2487,
  "\u2581Such": 2488,
  "\u2581whose": 2489,
  "\u2581Minister": 2490,
  "\u2581stop": 2491,
  "\u2581\u0441\u043b\u0435\u0434\u0443\u044e\u0449\u0438\u043c": 2492,
  "\u2581Environment": 2493,
  "\u2581\u0437\u0430\u0434\u0430\u0447": 2494,
  "\u2581\u0441\u043b\u0443\u0447\u0430\u0435\u0432": 2495,
  "\u2581\u043a\u0430\u043a\u0438\u0435": 2496,
  "\u2581\u044d\u043d\u0435\u0440\u0433\u0438\u0438": 2497,
  "\u2581identified": 2498,
  "\u2581\u0434\u0435\u043b\u0435\u0433\u0430\u0446\u0438\u0438": 2499,
  "\u2581went": 2500,
  "\u2581\u0447\u043b\u0435\u043d\u044b": 2501,
  "and": 2502,
  "\u2581operation": 2503,
  "\u0441\u043b\u0443\u0448\u0430": 2504,
  "\u2581Since": 2505,
  "\u2581higher": 2506,
  "\u2581Federation": 2507,
  "\u0449\u0430": 2508,
  "\u2581\u043e\u0431\u0440\u0430\u0449\u0435\u043d\u0438\u044f": 2509,
  "\u2581someone": 2510,
  "\u2581\u043a\u043e\u043d\u0442\u0440\u043e\u043b\u044c": 2511,
  "\u2581crisis": 2512,
  "\u043e\u043d": 2513,
  "\u2581positive": 2514,
  "\u2581\u0432\u0430\u0436\u043d\u043e\u0441\u0442\u044c": 2515,
  "\u25816.": 2516,
  "related": 2517,
  "\u2581People": 2518,
  "Rev": 2519,
  "\u2581\u0433\u043e\u0432\u043e\u0440\u0438\u043b": 2520,
  "\u2581First": 2521,
  "\u2581m": 2522,
  "\u2581\u043d\u0430\u0439\u0442\u0438": 2523,
  "\u2581\u043e\u0442\u043c\u0435\u0442\u0438\u043b": 2524,
  "\u2581\u0434\u0430\u043b\u0435\u0435": 2525,
  "\u2581type": 2526,
  "year": 2527,
  "\u2581vote": 2528,
  "\u2581\u0437\u0430\u043a\u043e\u043d": 2529,
  "\u2581\u043c\u043e\u044f": 2530,
  "\u044d\u0440": 2531,
  "\u2581\u043a\u043e\u043d\u0444\u043b\u0438\u043a\u0442\u043e\u0432": 2532,
  "\u2581\u0432\u044b\u0431\u0440\u043e\u0441\u043e\u0432": 2533,
  "\u2581\u00bb.": 2534,
  "\u2581reduce": 2535,
  "\u2581\u043c\u043d\u0435\u043d\u0438\u044e": 2536,
  "il": 2537,
  "\u2581conference": 2538,
  "\u2581\u043e\u0440\u0433\u0430\u043d\u0430\u043c\u0438": 2539,
  "\u2581processes": 2540,
  "\u2581\u0443\u0441\u043b\u043e\u0432\u0438\u0439": 2541,
  "\u2581regulations": 2542,
  "\u2581\u043f\u0440\u0438\u043c\u0435\u043d\u0435\u043d\u0438\u0435": 2543,
  "\u2581\u0438\u0441\u0442\u043e\u0447\u043d\u0438\u043a\u043e\u0432": 2544,
  "\u2581term": 2545,
  "\u2581ways": 2546,
  "\u2581\u0440\u0435\u0433\u0438\u043e\u043d\u0430": 2547,
  "\u2581Any": 2548,
  "\u2581\u0438\u0441\u0441\u043b\u0435\u0434\u043e\u0432\u0430\u043d\u0438\u044f": 2549,
  "\u2581\u0441\u043e\u0431\u0438\u0440\u0430": 2550,
  "\u043a\u043e\u043c": 2551,
  "G": 2552,
  "\u043c\u0430\u043d": 2553,
  "\u2581\u043b\u0438\u0446\u043e": 2554,
  "\u043f\u0443\u043d\u043a\u0442": 2555,
  "\u043c\u0435\u0440": 2556,
  "\u2581itself": 2557,
  "\u2581\u0441\u043e\u043e\u0431\u0449\u0435\u0441\u0442\u0432\u043e": 2558,
  "\u043b\u043e\u0441\u044c": 2559,
  "\u2581sorry": 2560,
  "\u2581exercise": 2561,
  "\u2581discussions": 2562,
  "\u2581purposes": 2563,
  "\u2581words": 2564,
  "\u042d": 2565,
  "\u2581\u0434\u043e\u043c\u0430": 2566,
  "\u0432\u0430\u043b": 2567,
  "id": 2568,
  "\u043f\u0430": 2569,
  "\u258156": 2570,
  "\u2581methods": 2571,
  "\u2581\u0432\u044b\u0441\u043e\u043a\u043e\u0433\u043e": 2572,
  "\u258154": 2573,
  "\u2581sound": 2574,
  "\u2581\u043a\u0430\u0436\u0434\u043e\u0433\u043e": 2575,
  "\u2581objective": 2576,
  "\u2581Force": 2577,
  "\u2581remains": 2578,
  "\u2581\u0443\u0442\u0432\u0435\u0440\u0436\u0434\u0435\u043d\u0438\u044f": 2579,
  "\u2581internal": 2580,
  "\u2581\u044d": 2581,
  "\u2581\u043f\u0440\u043e\u0442\u043e\u043a\u043e\u043b\u0430": 2582,
  "\u2581k": 2583,
  "\u2581hold": 2584,
  "\u258153": 2585,
  "\u0435\u0448\u044c\u0441\u044f": 2586,
  "\u2581integration": 2587,
  "\u2581substantive": 2588,
  "\u2581resource": 2589,
  "\u2581\u043f\u0440\u043e\u0432\u0435\u0434\u0435\u043d\u0438\u0438": 2590,
  "\u2581\u0434\u0435\u0439\u0441\u0442\u0432\u0438\u0442\u0435\u043b\u044c\u043d\u043e": 2591,
  "\u0435\u043d\u0438\u0435": 2592,
  "\u2581woman": 2593,
  "\u2581letter": 2594,
  "\u0438\u0442\u044c\u0441\u044f": 2595,
  "\u2581\u0438\u043d\u0438\u0446\u0438\u0430\u0442\u0438\u0432\u044b": 2596,
  "\u2581\u0434\u043d\u0435\u0439": 2597,
  "\u258158": 2598,
  "\u2581\u043f\u0443\u043d\u043a\u0442\u044b": 2599,
  "\u0436\u0430\u043b": 2600,
  "\u2581claims": 2601,
  "\u2581activity": 2602,
  "\u2581Item": 2603,
  "\u2581\u043f\u0440\u0435\u0434\u0441\u0442\u0430\u0432\u0438\u0442\u0435\u043b\u0438": 2604,
  "\u2581peoples": 2605,
  "\u2581\u043f\u0440\u043e\u0433\u0440\u0430\u043c\u043c\u0430": 2606,
  "\u2581\u0437\u043d\u0430\u043b": 2607,
  "\u2581\u043c\u0435\u0441\u0442\u0430": 2608,
  "\u2581Because": 2609,
  "\u2581vehicles": 2610,
  "\u2581participants": 2611,
  "\u2581\u043e\u0441\u0443\u0449\u0435\u0441\u0442\u0432\u043b\u044f\u0442\u044c": 2612,
  "\u2581trying": 2613,
  "\u2581functions": 2614,
  "\u2581\u041a\u043e\u043c\u0438\u0442\u0435\u0442\u043e\u043c": 2615,
  "\u2581girl": 2616,
  "\u0451\u0442": 2617,
  "\u2581\u0437\u0430\u0449\u0438\u0442\u0443": 2618,
  "\u2581rather": 2619,
  "\u2581car": 2620,
  "\u2581UNCTAD": 2621,
  "\u2581\u043a\u043e\u0440\u0435\u043d\u043d\u044b\u0445": 2622,
  "\u2581\u043a\u043e\u043d\u043a\u0440\u0435\u0442\u043d\u044b\u0435": 2623,
  "\u2581Regulation": 2624,
  "\u258164": 2625,
  "\u2581\u0448": 2626,
  "\u2581\u0432\u0430\u0436\u043d\u043e": 2627,
  "\u2581developments": 2628,
  "man": 2629,
  "\u25812,": 2630,
  "\u2581\u0440\u0430\u0437\u043b\u0438\u0447\u043d\u044b\u0435": 2631,
  "\u043e\u0441\u044c": 2632,
  "\u2581apply": 2633,
  "\u2581\u043e\u0437\u043d\u0430\u0447\u0430\u0435\u0442": 2634,
  "\u2581\u0434\u043e\u043a\u0443\u043c\u0435\u043d\u0442\u044b": 2635,
  "\u2581bad": 2636,
  "V": 2637,
  "\u2581\u043e\u0431\u0435\u0441\u043f\u0435\u0447\u0438\u0432\u0430\u0442\u044c": 2638,
  "\u2581\u0434\u043e\u043a\u043b\u0430\u0434\u0447\u0438\u043a": 2639,
  "\u2581\u0442\u0435\u043a\u0441\u0442": 2640,
  "\u2581\u043f\u043e\u0442\u043e\u043c": 2641,
  "\u2581\u043e\u043a\u0430\u0437\u0430\u043d\u0438\u0435": 2642,
  "\u2581team": 2643,
  "\u2581paper": 2644,
  "\u2581\u0440\u0435\u0437\u043e\u043b\u044e\u0446\u0438\u044e": 2645,
  "TRANS": 2646,
  "The": 2647,
  "\u2581\u0441\u043f\u043e\u0441\u043e\u0431\u0441\u0442\u0432\u043e\u0432\u0430\u0442\u044c": 2648,
  "\u2581\u0415\u0432\u0440\u043e\u043f\u0435\u0439\u0441\u043a": 2649,
  "\u2581Institute": 2650,
  "\u2581Go": 2651,
  "\u2581Table": 2652,
  "\u2581\u0441\u043f\u0435\u0446\u0438\u0430\u043b\u044c\u043d\u044b\u0445": 2653,
  "\u2581media": 2654,
  "\u2581\u041f\u0440\u043e\u0441\u0442\u043e": 2655,
  "\u2581Administrative": 2656,
  "\u2581\u043f\u0440\u0435\u0434\u043b\u0430\u0433\u0430\u0435\u0442": 2657,
  "\u2581\u0431\u0443\u0434\u0443": 2658,
  "\u2581idea": 2659,
  "\u2581\u0412\u043c\u0435\u0441\u0442\u0435": 2660,
  "\u2581\u043f\u0440\u043e\u0432\u043e\u0434\u0438\u0442\u044c": 2661,
  "\u258170": 2662,
  "\u2581\u043c\u0435\u0441\u044f\u0446\u0435\u0432": 2663,
  "\u2581economy": 2664,
  "\u2581outside": 2665,
  "\u043d\u044e": 2666,
  "\u2581primary": 2667,
  "\u2581fight": 2668,
  "\u2581\u043c\u043d\u0435\u043d\u0438\u0435": 2669,
  "\u2581\u041f\u041e": 2670,
  "\u2581\u0433\u0440\u0430\u0436\u0434\u0430\u043d\u0441\u043a\u0438\u0445": 2671,
  "5": 2672,
  "\u2581\u042e\u041d\u041a\u0422\u0410\u0414": 2673,
  "is": 2674,
  "\u2581benefit": 2675,
  "\u2581applied": 2676,
  "\u2581\u0420\u0435": 2677,
  "\u2581\u0432\u0435\u0449\u0435\u0441\u0442\u0432": 2678,
  "\u043a\u0430\u0437": 2679,
  "\u2581\u0410\u043c\u0435\u0440\u0438\u043a\u0438": 2680,
  "\u2581bit": 2681,
  "\u2581periodic": 2682,
  "\u2581\u0438\u043d\u0444\u043e\u0440\u043c\u0430\u0446\u0438\u043e\u043d\u043d\u043e": 2683,
  "\u2581Arab": 2684,
  "\u2581allow": 2685,
  "\u2581ECE": 2686,
  "\u2581\u0444\u0443\u043d\u043a\u0446\u0438\u0438": 2687,
  "\u2581\u043c\u0430\u043d\u0434\u0430\u0442\u0430": 2688,
  "K": 2689,
  "\u2581communities": 2690,
  "\u2581\u0441\u0430\u043c\u044b\u043c": 2691,
  "\u2581saw": 2692,
  "\u2581welcomed": 2693,
  "\u2581sub": 2694,
  "\u2581\u0437": 2695,
  "\u2581\u043c\u0435\u0442\u043e\u0434\u043e\u0432": 2696,
  "W": 2697,
  "\u2581institutional": 2698,
  "\u2581currently": 2699,
  "\u2581\u0432\u0441\u0435\u043c\u0438": 2700,
  "\u2581prior": 2701,
  "\u2581\u0441\u043e\u0441\u0442\u0430\u0432\u043b\u044f\u0435\u0442": 2702,
  "\u0451\u043d": 2703,
  "\u2581\u0446\u0435\u043b\u044c": 2704,
  "\u2581\u0437\u043d\u0430\u0442\u044c": 2705,
  "\u2581infrastructure": 2706,
  "\u2581looking": 2707,
  "\u2581\u043c\u0435\u0445\u0430\u043d\u0438\u0437\u043c\u0430": 2708,
  "\u2581\u043e\u043a\u0430\u0437\u0430\u043d\u0438\u044e": 2709,
  "\u2581Israeli": 2710,
  "\u2581\u043a\u0430\u0436\u0434\u044b\u0439": 2711,
  "\u2581Crime": 2712,
  "\u2581true": 2713,
  "\u2581\u0421\u043e\u0432\u0435\u0442\u043e\u043c": 2714,
  "\u2581\u0445\u043e\u0447\u0435\u0442": 2715,
  "\u2581\u043f\u0440\u0430\u0432\u0438\u0442\u0435\u043b\u044c\u0441\u0442\u0432\u043e\u043c": 2716,
  "\u2581\u043f\u043b\u0430\u043d\u0438\u0440\u043e\u0432\u0430\u043d\u0438\u044f": 2717,
  "\u2581\u0434\u043e\u0441\u0442\u0430\u0442\u043e\u0447\u043d\u043e": 2718,
  "\u2581Public": 2719,
  "\u2581else": 2720,
  "\u2581\u043f\u0440\u0430\u043a\u0442\u0438\u043a\u0435": 2721,
  "\u2581w": 2722,
  "\u2581\u0441\u0435\u043a\u0440\u0435\u0442\u0430\u0440\u0438\u0430\u0442": 2723,
  "\u2581\u0430\u043d\u0430\u043b\u0438\u0437": 2724,
  "\u2581range": 2725,
  "\u2581introduced": 2726,
  "\u2581\u0441\u0442\u0440\u0430\u0442\u0435\u0433\u0438\u0439": 2727,
  "\u2581move": 2728,
  "\u2581\u0441\u0438\u0441\u0442\u0435\u043c\u0443": 2729,
  "\u2581estimated": 2730,
  "\u2581\u0441\u043e\u0437\u0434\u0430\u0442\u044c": 2731,
  "\u2581\u0433\u043e\u0432\u043e\u0440\u0438\u0442\u0441\u044f": 2732,
  "\u2581ago": 2733,
  "\u2581\u043f\u0440\u0430\u0432\u0438\u0442\u0435\u043b\u044c\u0441\u0442\u0432": 2734,
  "\u0438\u0441": 2735,
  "\u2581Management": 2736,
  "\u2581centres": 2737,
  "\u2581Kingdom": 2738,
  "\u2581\u0422\u0435\u043c": 2739,
  "\u2581participate": 2740,
  "\u2581\u0441\u043e\u0432\u043c\u0435\u0441\u0442\u043d\u043e": 2741,
  "\u2581Agency": 2742,
  "\u2581strong": 2743,
  "\u2581critical": 2744,
  "\u2581\u043f\u0440\u044f\u043c\u043e": 2745,
  "\u043e\u043b": 2746,
  "\u2581actually": 2747,
  "\u2581\u043d\u0435\u043f\u043e\u0441\u0440\u0435\u0434\u0441\u0442\u0432\u0435\u043d\u043d\u043e": 2748,
  "\u2581\u0442\u0440\u0430\u043d\u0441\u043f\u043e\u0440\u0442\u043d\u044b\u0445": 2749,
  "\u2581\u041a\u043e\u043d\u0435\u0447\u043d\u043e": 2750,
  "\u2581\u043e\u0441\u043d\u043e\u0432\u043d\u044b\u0435": 2751,
  "\u2581\u0441\u0442\u0430\u0442\u044c": 2752,
  "\u2581Support": 2753,
  "\u2581\u0440\u0430\u0441\u043e\u0432\u043e\u0439": 2754,
  "\u2581difficult": 2755,
  "\u2581standard": 2756,
  "\u2581\u0434\u043e\u043f\u043e\u043b\u043d\u0438\u0442\u0435\u043b\u044c\u043d\u044b\u0435": 2757,
  "\u0448\u0443": 2758,
  "\u2581stay": 2759,
  "\u2581\u043d\u0430\u0446\u0438\u043e\u043d\u0430\u043b\u044c\u043d\u044b\u0435": 2760,
  "\u2581ye": 2761,
  "\u2581\u043b\u044e\u0431\u043e\u0439": 2762,
  "\u2581road": 2763,
  "\u043f\u0438": 2764,
  "\u2581\u0434\u043e\u043f\u043e\u043b\u043d\u0438\u0442\u0435\u043b\u044c\u043d\u044b\u0445": 2765,
  "\u2581\u0417\u0430\u043a\u043e\u043d": 2766,
  "\u0441\u0430": 2767,
  "\u0437\u0434": 2768,
  "\u2581\u043e\u0442\u043c\u0435\u0442\u0438\u0442\u044c": 2769,
  "\u2581\u043f\u0440\u0430\u0432\u0438\u043b\u0430": 2770,
  "\u2581\u0443\u043a\u0440\u0435\u043f\u043b\u0435\u043d\u0438\u044e": 2771,
  "\u2581\u0434\u0432\u0435": 2772,
  "\u2581side": 2773,
  "\u0435\u0445\u0430": 2774,
  "\u2581\u0440\u0430\u0431\u043e\u0447\u0435\u0439": 2775,
  "\u2581Right": 2776,
  "\u0443\u0447\u0430\u0441\u0442\u043d\u0438\u043a\u0443": 2777,
  "ta": 2778,
  "\u25817.": 2779,
  "\u2581\u043e\u0431\u0440\u0430\u0437\u043e\u0432\u0430\u043d\u0438\u0435": 2780,
  "\u2581\u043c\u0435\u0436\u043f\u0440\u0430\u0432\u0438\u0442\u0435\u043b\u044c": 2781,
  "\u00bb,": 2782,
  "\u0441\u043e": 2783,
  "\u043d\u043e\u043c\u0443": 2784,
  "\u2581improving": 2785,
  "\u2581\u043e\u0431\u0435\u0441\u043f\u043e\u043a\u043e\u0435\u043d\u043d\u043e\u0441\u0442\u044c": 2786,
  "\u2581cultural": 2787,
  "\u2581\u043c\u0438\u0441\u0441\u0438\u0438": 2788,
  "\u2581turn": 2789,
  "\u2581\u043e\u0441\u043d\u043e\u0432\u0430\u043d\u0438\u0438": 2790,
  ".8": 2791,
  "\u2581\u0445\u043e\u0442\u0435\u043b\u0430": 2792,
  "\u2581combat": 2793,
  "\u2581\u0441\u043e\u0433\u043b\u0430\u0448\u0435\u043d\u0438\u0439": 2794,
  "\u2581similar": 2795,
  "\u2581twenty": 2796,
  "\u0440\u0435\u043d": 2797,
  "\u2581Al": 2798,
  "\u0434\u044b": 2799,
  "\u2581killed": 2800,
  "\u0441\u0442\u043e": 2801,
  "\u2581pre": 2802,
  "\u20ac": 2803,
  "\u2581complete": 2804,
  "\u2581materials": 2805,
  "\u2581\u0432\u044b\u0441\u0448\u0435\u043c": 2806,
  "\u2581\u0440\u0443\u043a\u043e\u0432\u043e\u0434\u044f\u0449\u0438\u0445": 2807,
  "\u2581amendments": 2808,
  "\u2581ongoing": 2809,
  "\u2581alone": 2810,
  "\u2581\u043c\u0435\u0441\u0442\u0435": 2811,
  "\u2581Unit": 2812,
  "\u2581require": 2813,
  "\u2581big": 2814,
  "\u2581single": 2815,
  "\u2581\u0422\u0435\u043f\u0435\u0440\u044c": 2816,
  "\u2581statistics": 2817,
  "\u2581\u043e\u0442\u043d\u043e\u0448\u0435\u043d\u0438\u044f": 2818,
  "\u2581\u043e\u0431\u0449\u0438\u043d": 2819,
  "\u2581investigation": 2820,
  "\u2581Sustainable": 2821,
  "\u2581Our": 2822,
  "\u2581travel": 2823,
  "\u2581AND": 2824,
  "\u2581situations": 2825,
  "\u2581\u043c\u0435\u0436\u0434\u0443\u043d\u0430\u0440\u043e\u0434\u043d\u043e\u043c\u0443": 2826,
  "\u2581reason": 2827,
  "\u2581\u0441\u0442\u0430\u043d\u0434\u0430\u0440\u0442\u043e\u0432": 2828,
  "ity": 2829,
  "\u2581\u0441\u043e\u0432\u0435\u0449\u0430\u043d\u0438\u0438": 2830,
  "\u2581Recalling": 2831,
  "\u2581Political": 2832,
  "\u258162": 2833,
  "\u2581\u041a\u043e\u043d\u0441\u0443\u043b\u044c\u0442\u0430\u0442\u0438\u0432\u043d": 2834,
  "us": 2835,
  "\u2581\u0433\u043e\u0441\u0443\u0434\u0430\u0440\u0441\u0442\u0432\u0435\u043d\u043d\u044b\u0445": 2836,
  "AIDS": 2837,
  "\u2581points": 2838,
  "\u2581\u0442\u0440\u0435\u0431\u043e\u0432\u0430\u043d\u0438\u044f": 2839,
  "\u2581calls": 2840,
  "\u2581Non": 2841,
  "\u2581\u043d\u043e\u0432\u043e\u0433\u043e": 2842,
  "\u2581\u0441\u043f\u0435\u0446\u0438\u0430\u043b\u044c\u043d\u043e\u0439": 2843,
  "\u0435\u043b": 2844,
  "x": 2845,
  "\u2581\u0440\u0430\u0441\u0441\u043c\u043e\u0442\u0440\u0435\u043d\u0438\u044e": 2846,
  "art": 2847,
  "\u25810": 2848,
  "\u2581\u0447\u0430\u0441\u0442\u043e": 2849,
  "\u2581\u041f\u043e\u0441\u0442\u043e\u044f\u043d\u043d": 2850,
  "\u0451\u043b": 2851,
  "\u2581Maybe": 2852,
  "\u2581\u0437\u0430\u0434\u0430\u0447\u0438": 2853,
  "\u2581\u0441\u0430\u043c\u043e\u043c": 2854,
  "\u2581fine": 2855,
  "\u2581\u043f\u043e\u0447\u0442\u0438": 2856,
  "\u2581hard": 2857,
  "\u2581\u0443\u043c": 2858,
  "\u2581\u0410\u0441\u0441\u0430\u043c\u0431\u043b\u0435\u0435\u0439": 2859,
  "\u2581VI": 2860,
  "\u2581elements": 2861,
  "\u2581\u043f\u0440\u0435\u0434\u0443\u043f\u0440\u0435\u0436\u0434\u0435\u043d\u0438\u044f": 2862,
  "\u2581Democratic": 2863,
  "\u2581\u043d\u0435\u043c\u043d\u043e\u0433\u043e": 2864,
  "\u2581\u0444\u0438\u043d\u0430\u043d\u0441\u043e\u0432\u044b\u0435": 2865,
  "\u2581Discrimination": 2866,
  "\u2581\u0441\u043e\u0441\u0442\u043e\u044f\u043d\u0438\u0438": 2867,
  "\u2581effectively": 2868,
  "\u2581Draft": 2869,
  "\u2581\u0422\u0430\u043a\u0438\u043c": 2870,
  "\u2581\u0441\u0440\u0430\u0432\u043d\u0435\u043d\u0438\u044e": 2871,
  "\u0441\u043a\u0438\u0435": 2872,
  "\u258161": 2873,
  "v": 2874,
  "\u2581\u043e\u0431\u0449\u0438\u0445": 2875,
  "\u2581\u043f\u043e\u0432\u044b\u0448\u0435\u043d\u0438\u0435": 2876,
  "\u2581effectiveness": 2877,
  "\u2581kill": 2878,
  "\u2581u": 2879,
  "\u2581\u043d\u0430\u0440\u043e\u0434\u0430": 2880,
  "\u2581\u0441\u0438\u0441\u0442\u0435\u043c\u0435": 2881,
  "\u2581\u0440\u0430\u043d\u0435\u0435": 2882,
  "\u2581\u043f\u0440\u043e\u0433\u0440\u0430\u043c\u043c\u0443": 2883,
  "\u2581parents": 2884,
  "\u2581includes": 2885,
  "\u2581short": 2886,
  "\u2581effort": 2887,
  "\u2581\u0433\u043e\u0441\u0443\u0434\u0430\u0440\u0441\u0442\u0432\u0443": 2888,
  "\u2581debt": 2889,
  "\u0447\u0442\u043e": 2890,
  "\u2581debate": 2891,
  "\u2581interests": 2892,
  "\u2581maintenance": 2893,
  "\u2581dead": 2894,
  "\u2581\u043f\u0440\u043e\u0435\u043a\u0442\u0443": 2895,
  "\u2581abuse": 2896,
  "\u2581\u0441\u0442\u0430\u043b\u0438": 2897,
  "\u0440\u0430\u0436": 2898,
  "\u2581\u0431\u0435\u0436\u0435\u043d\u0446\u0435\u0432": 2899,
  "\u2581Also": 2900,
  "\u2581\u0432\u043e\u043f\u0440\u043e\u0441\u0430\u043c\u0438": 2901,
  "\u2581\u0441\u043f\u0435\u0446\u0438\u0430\u043b\u0438\u0441\u0442\u043e\u0432": 2902,
  "\u2581rates": 2903,
  "\u2581\u043d\u0435\u0441\u043c\u043e\u0442\u0440\u044f": 2904,
  "\u044c\u044e": 2905,
  "\u2581\u0432\u043e\u043e\u0440\u0443\u0436\u0435\u043d\u043d\u044b\u0445": 2906,
  "\u2581thank": 2907,
  "\u2581talking": 2908,
  "\u2581\u041a\u043e\u043c\u0438\u0442\u0435\u0442\u0443": 2909,
  "\u2581\u0432\u043e\u043f\u0440\u043e\u0441\u0430\u0445": 2910,
  "\u2581\u0420\u0435\u0441\u043f\u0443\u0431\u043b\u0438\u043a\u0430": 2911,
  "\u2581\u0431\u0443\u0434\u0443\u0449\u0435\u043c": 2912,
  "\u2581paid": 2913,
  "\u2581active": 2914,
  "\u2581\u0443\u0447\u0440\u0435\u0436\u0434\u0435\u043d\u0438\u044f\u043c\u0438": 2915,
  "\u2581\u0431\u043b\u0430\u0433\u043e": 2916,
  "\u2581gave": 2917,
  "\u2581enable": 2918,
  "\u2581\u0434\u0435\u043b\u0443": 2919,
  "\u2581\u0441\u0442\u0430\u0440": 2920,
  "\u2581According": 2921,
  "\u2581\u0441\u0432\u0435\u0434\u0435\u043d\u0438\u044f": 2922,
  "\u2581plenary": 2923,
  "\u2581remember": 2924,
  "\u2581\u0442\u0435\u0445\u043d\u043e\u043b\u043e\u0433\u0438\u0438": 2925,
  "\u043f\u043e\u043b": 2926,
  "\u2581UNICEF": 2927,
  "\u2581\u041c\u0430": 2928,
  "\u2581getting": 2929,
  "\u2581\u0433\u0440\u0443\u043f\u043f\u043e\u0439": 2930,
  "\u2581initiative": 2931,
  "\u2581\u0440\u0430\u0437\u0432\u0438\u0442\u044b\u0445": 2932,
  "\u2581\u0440\u0435\u0433\u0438\u043e\u043d\u0430\u043b\u044c\u043d\u043e\u043c": 2933,
  "\u2581\u0438\u0437\u043c\u0435\u043d\u0435\u043d\u0438\u0439": 2934,
  "\u2581sectors": 2935,
  "\u2581\u043c\u0435\u0441\u0442": 2936,
  "\u2581\u043f\u0440\u0438\u043b\u043e\u0436\u0435\u043d\u0438\u0438": 2937,
  "\u2581families": 2938,
  "\u0435\u043b\u0438": 2939,
  "\u2581After": 2940,
  "\u2581\u043d\u0438\u043a\u0430\u043a\u0438\u0445": 2941,
  "\u2581makes": 2942,
  "\u2581priorities": 2943,
  "\u2581obligation": 2944,
  "\u0435\u0442\u0435": 2945,
  "\u2581applicable": 2946,
  "\u2581\u043e\u0431\u0443\u0447\u0435\u043d\u0438\u044f": 2947,
  "\u258157": 2948,
  "\u2581\u043f\u043e\u043e\u0449\u0440\u0435\u043d\u0438\u044f": 2949,
  "\u2581\u043d\u043e\u0432\u043e\u0439": 2950,
  "\u2581extent": 2951,
  "\u0430\u043d\u0433\u043b\u0438\u0439\u0441\u043a\u0438": 2952,
  "\u2581\u0441\u0443\u0449\u0435\u0441\u0442\u0432\u0443\u0435\u0442": 2953,
  "\u2581\u0443\u0447\u0435\u0431\u043d\u044b\u0445": 2954,
  "\u2581\u0422\u043e\u0433\u0434\u0430": 2955,
  "\u2581trust": 2956,
  "\u2581physical": 2957,
  "ar": 2958,
  "\u2581\u0440\u0435\u0437\u043e\u043b\u044e\u0446\u0438\u0435\u0439": 2959,
  "\u2581\u042e\u041d\u0418\u0421\u0415\u0424": 2960,
  "\u2581\u041f\u043e\u0442\u043e\u043c\u0443": 2961,
  "\u0430\u0441\u044c": 2962,
  "\u2581son": 2963,
  "\u2581emergency": 2964,
  "\u2581raised": 2965,
  "\u2581created": 2966,
  "\u2581scope": 2967,
  "ive": 2968,
  "\u2581\u0414\u043e\u0433\u043e\u0432\u043e\u0440\u0430": 2969,
  "\u2581opinion": 2970,
  "\u2581legislative": 2971,
  "\u2581\u0437\u043d\u0430\u0435\u0442": 2972,
  "\u2581\u043e\u0442\u0441\u0443\u0442\u0441\u0442\u0432\u0438\u0435": 2973,
  "\u2581\u043d\u043e\u0432\u044b\u0439": 2974,
  "\u2581\u0410\u0440": 2975,
  "\u2581events": 2976,
  "\u2581products": 2977,
  "\u2581\u0434\u0435\u0442\u044c\u043c\u0438": 2978,
  "\u2581\u0442\u0432\u043e\u0439": 2979,
  "\u2581\u0441\u043a\u0430\u0437\u0430\u043b\u0430": 2980,
  "\u2581\u043e\u0431\u044f\u0437\u0430\u043d\u043d\u043e\u0441\u0442\u0438": 2981,
  "\u2581\u0433\u043e\u0432\u043e\u0440\u0438\u0442\u044c": 2982,
  "\u2581discussed": 2983,
  "\u043f\u043e\u0434": 2984,
  "\u258180": 2985,
  "\u2581\u0434\u0430\u043d\u043d\u043e\u0433\u043e": 2986,
  "\u2581\u043a\u0430\u0436\u0434\u043e\u0439": 2987,
  "\u2581\u0441\u0441\u044b\u043b\u0430\u044f\u0441\u044c": 2988,
  "\u2581\u043f\u0443\u043d\u043a\u0442\u043e\u0432": 2989,
  "\u2581universal": 2990,
  "\u2581circumstances": 2991,
  "\u2581\u043d\u0430\u0437\u043d\u0430\u0447\u0435\u043d\u0438\u044f": 2992,
  "\u2581\u043f\u043e\u0437\u0432\u043e": 2993,
  "\u0435\u043c\u0441\u044f": 2994,
  "ry": 2995,
  "\u044d": 2996,
  "\u2581\u0438\u0441\u043f\u043e\u043b\u044c\u0437\u043e\u0432\u0430\u043d\u0438\u0435\u043c": 2997,
  "\u2581\u0422\u0435\u0431\u0435": 2998,
  "\u2581\u0433\u0440\u0443\u043f\u043f\u0435": 2999,
  "\u2581\u043c\u0435\u0445\u0430\u043d\u0438\u0437\u043c\u044b": 3000,
  "\u2581try": 3001,
  "\u2581\u0438\u043d\u0442\u0435\u0433\u0440\u0430\u0446\u0438\u0438": 3002,
  "\u2581poor": 3003,
  ".9": 3004,
  "\u2581\u0434\u0435\u0432\u043e\u0447\u0435\u043a": 3005,
  "\u2581\u043f\u0440\u0435\u0434\u043e\u0441\u0442\u0430\u0432\u043b\u0435\u043d\u0438\u044f": 3006,
  "\u2581French": 3007,
  "\u2581Japan": 3008,
  "\u2581\u043f\u0440\u0438\u043d\u044f\u0442\u044b\u0445": 3009,
  "\u2581directly": 3010,
  "\u0431\u0435": 3011,
  "\u2581\u043f\u0440\u0438\u043d\u044f\u043b\u0430": 3012,
  "\u2581\u0436\u0435\u0440\u0442\u0432": 3013,
  "\u2581\u0441\u043e\u0432\u0435\u0449\u0430\u043d\u0438\u0439": 3014,
  "\u2581practical": 3015,
  "\u2581\u0432\u043d\u0443\u0442\u0440\u0435\u043d\u043d\u0438\u0445": 3016,
  "\u0445\u043e\u0434": 3017,
  "\u2581\u042d\u043a\u043e\u043d\u043e\u043c\u0438\u0447\u0435\u0441\u043a\u043e\u0433\u043e": 3018,
  "\u2581\u0434\u0430\u043d\u043d\u043e\u0439": 3019,
  "\u2581source": 3020,
  "\u2581technologies": 3021,
  "\u2581language": 3022,
  "\u2581\u0434\u043e\u043b\u0436\u043d\u043e\u0441\u0442\u043d\u044b": 3023,
  "\u2581\u0441\u043e\u0441\u0442\u043e\u044f\u043d\u0438\u044e": 3024,
  "\u2581\u043f\u0440\u043e\u0438\u0441\u0445\u043e\u0434\u0438\u0442": 3025,
  "\u2581Bureau": 3026,
  "\u2581\u0440\u0430\u0441\u0448\u0438\u0440\u0435\u043d\u0438\u044f": 3027,
  "\u2581\u041c\u0438\u0441\u0441\u0438\u0438": 3028,
  "\u2581known": 3029,
  "\u2581200": 3030,
  "\u2581\u043f\u0440\u0438\u0437\u043d\u0430\u0442\u0435\u043b\u044c\u043d\u043e\u0441\u0442\u044c": 3031,
  "\u2581\u043c\u0438\u043d\u0438\u0441\u0442\u0440\u043e\u0432": 3032,
  "\u2581\u0440\u0435\u0437\u043e\u043b\u044e\u0446\u0438\u0439": 3033,
  "\u2581\u0442\u0443": 3034,
  "\u2581\u043f\u0440\u0438\u0447\u0438\u043d": 3035,
  "\u2581\u0440\u0430\u0441\u0441\u043b\u0435\u0434\u043e\u0432\u0430\u043d\u0438\u044f": 3036,
  "\u2581\u0434\u0435\u044f\u0442\u0435\u043b\u044c\u043d\u043e\u0441\u0442\u044c\u044e": 3037,
  "ter": 3038,
  "\u2581Children": 3039,
  "\u2581\u0432\u044b\u0431\u043e\u0440\u043e\u0432": 3040,
  "\u2581\u043c\u0438\u043b": 3041,
  "\u2581\u0441\u0435\u043c\u0435\u0439": 3042,
  "\u0441\u0435": 3043,
  "\u2581\u043c\u0435\u0441\u0442\u043d\u044b\u0445": 3044,
  "\u2581\u041c\u0438": 3045,
  "um": 3046,
  "ii": 3047,
  "\u0438\u043a": 3048,
  "\u2581\u0432\u043e\u0437\u0440\u0430\u0441\u0442\u0435": 3049,
  "by": 3050,
  "\u2581\u043c\u0430\u0441\u0448\u0442\u0430\u0431\u043e\u0432": 3051,
  "\u2581appreciation": 3052,
  "\u2581\u043f\u0440\u0435\u0434\u0441\u0442\u0430\u0432\u043b\u044f\u0435\u0442\u0441\u044f": 3053,
  "\u2581\u043f\u0440\u043e\u0433\u0440\u0430\u043c\u043c\u0435": 3054,
  "\u2581\u0446\u0435\u043d": 3055,
  "\u2581\u0441\u043e\u0437\u0434\u0430\u043d\u0438\u044e": 3056,
  "\u2581\u0434\u0435\u043a\u043b\u0430\u0440\u0430\u0446\u0438\u0438": 3057,
  "\u2581\u043c\u0430\u0448\u0438\u043d": 3058,
  "\u0439\u0442\u0435\u0441\u044c": 3059,
  "\u2581\u043f\u0440\u0430\u0432\u0434\u0430": 3060,
  "\u2581relation": 3061,
  "\u2581\u0444\u0438\u043d\u0430\u043d\u0441\u043e\u0432\u043e\u0439": 3062,
  "\u043b\u0435\u043d": 3063,
  "\u2581\u043f\u043e\u043b\u043d\u043e\u0433\u043e": 3064,
  "\u2581capital": 3065,
  "\u2581claim": 3066,
  "\u2581receive": 3067,
  "\u2581\u0432\u043e\u0437\u0434\u0435\u0439\u0441\u0442\u0432\u0438\u044f": 3068,
  "\u25812015": 3069,
  "\u2581efficiency": 3070,
  "\u0437\u043e\u0432": 3071,
  "\u043e\u0441": 3072,
  "\u2581Jehovah": 3073,
  "\u2581Those": 3074,
  "\u2581\u043f\u043e\u043b\u0438\u0442\u0438\u0447\u0435\u0441\u043a\u043e\u0439": 3075,
  "\u2581\u0434\u043e\u0441\u0442\u0438\u0436\u0435\u043d\u0438\u044e": 3076,
  "\u2212": 3077,
  "\u2581entities": 3078,
  "\u2581\u0441\u0430\u043c\u043e": 3079,
  "\u2581\u0441\u043e\u0432\u0435\u0442\u0430": 3080,
  "\u2581Here": 3081,
  "30": 3082,
  "\u2581\u0422\u043e\u043b\u044c\u043a\u043e": 3083,
  "\u043c\u044b": 3084,
  "\u0437\u0438": 3085,
  "\u043a\u0440\u043e": 3086,
  "\u2581\u043e\u0431\u044a\u0435\u043c\u0435": 3087,
  "\u2581run": 3088,
  "\u2581\u0437\u043d\u0430\u0447\u0438\u0442": 3089,
  "\u2581cover": 3090,
  "\u0446\u044b": 3091,
  "\u2581mentioned": 3092,
  "\u2581\u0441\u0442\u043e\u0438\u0442": 3093,
  "\u2581\u0436\u0435\u043d\u0449\u0438\u043d\u0430\u043c\u0438": 3094,
  "ur": 3095,
  "\u2581\u0441\u043e\u0446\u0438\u0430\u043b\u044c\u043d\u043e": 3096,
  "\u2581\u0433\u043b\u0430\u0432\u043d\u044b\u043c": 3097,
  "\u2581achieving": 3098,
  "\u2581\u0441\u043e\u0432\u0435\u0442": 3099,
  "\u2581late": 3100,
  "\u2581\u043a\u043e\u0440": 3101,
  "\u2581\u0441\u044e\u0434\u0430": 3102,
  "\u2581step": 3103,
  "\u2581saying": 3104,
  "\u2581\u044d\u043a\u0441\u043f\u043b\u0443\u0430\u0442\u0430\u0446\u0438\u0438": 3105,
  "\u2581along": 3106,
  "\u2581\u0442\u043e\u0432\u0430\u0440\u043e\u0432": 3107,
  "\u2581\u041c\u0435\u0436\u0434\u0443\u043d\u0430\u0440\u043e\u0434\u043d\u044b\u0439": 3108,
  "\u2581stakeholders": 3109,
  "\u2581sex": 3110,
  "\u25818.": 3111,
  "\u2581\u043a\u043e\u043d\u0446\u0435": 3112,
  "\u2581Peace": 3113,
  "\u2581Charter": 3114,
  "\u2581\u043f\u044f\u0442\u044c": 3115,
  "\u0435\u0434": 3116,
  "\u2581\u044d\u043a\u043e\u043d\u043e\u043c\u0438\u043a\u0438": 3117,
  "\u0431\u044b": 3118,
  "\u2581Add": 3119,
  "\u2581knew": 3120,
  "\u0443\u0447\u0430\u0441\u0442\u043d\u0438\u043a\u0430": 3121,
  "\u2581\u0432\u043e\u0439\u043d\u044b": 3122,
  "\u2581longer": 3123,
  "\u2581\u0442\u0435\u0440\u0440\u043e\u0440\u0438\u0437\u043c\u043e\u043c": 3124,
  "\u2581\u0441\u0435\u043a\u0440\u0435\u0442\u0430\u0440\u0438\u0430\u0442\u0430": 3125,
  "\u2581\u043e\u0446\u0435\u043d\u043a\u0443": 3126,
  "\u2581\u0437\u0430\u044f\u0432\u043b\u0435\u043d\u0438\u044f": 3127,
  "\u2581suggested": 3128,
  "\u2581Foreign": 3129,
  "\u0441\u043a\u0438\u0439": 3130,
  "\u2581\u0440\u044f\u0434\u0430": 3131,
  "\u2581\u043c\u043e\u0433\u043b\u0430": 3132,
  "\u2581\u0442\u0440\u0435\u0431\u0443\u0435\u0442": 3133,
  "\u2581adopt": 3134,
  "\u2581\u041b": 3135,
  "\u2581\u041d\u0430\u043c": 3136,
  "\u2581\u043f\u043e\u0434\u0434\u0435\u0440\u0436\u0438\u0432\u0430\u0435\u0442": 3137,
  "\u2581former": 3138,
  "\u2581\u043d\u0430\u0438\u043c\u0435\u043d\u0435\u0435": 3139,
  "\u2581prison": 3140,
  "\u0430\u0442": 3141,
  "\u2581Services": 3142,
  "\u2581\u041f\u0440\u0430\u0432\u0438\u0442\u0435\u043b\u044c\u0441\u0442\u0432\u043e": 3143,
  "\u2581reasons": 3144,
  "\u2581\u043e\u0441\u043e\u0431\u043e\u0435": 3145,
  "\u0432\u0430\u0442\u044c": 3146,
  "\u258190": 3147,
  "\u2581Education": 3148,
  "\u2581\u0443\u0434\u043e\u0432\u043b\u0435\u0442\u0432\u043e\u0440\u0435\u043d\u0438\u0435\u043c": 3149,
  "\u0416": 3150,
  "\u2581anti": 3151,
  "\u2581\u0442\u0435\u0445\u043d\u0438\u0447\u0435\u0441\u043a\u043e\u0433\u043e": 3152,
  "\u2581Ad": 3153,
  "\u2581reached": 3154,
  "\u2581half": 3155,
  "50": 3156,
  "\u2581compensation": 3157,
  "\u2581throughout": 3158,
  "\u2581\u0416": 3159,
  "first": 3160,
  "\u2581\u0440\u0430\u0432\u043d\u043e": 3161,
  "\u25812005,": 3162,
  "\u2581\u041e\u0440\u0433\u0430\u043d\u0438\u0437\u0430\u0446\u0438\u0435\u0439": 3163,
  "\u2581\u0447\u043b\u0435\u043d\u0430\u043c\u0438": 3164,
  "\u2581Child": 3165,
  "\u2581\u043e\u0431\u043c\u0435\u043d\u0430": 3166,
  "\u2581week": 3167,
  "\u2581Civil": 3168,
  "\u2581voluntary": 3169,
  "\u0440\u044b": 3170,
  "\u2581though": 3171,
  "\u2581\u043f\u043e\u043a\u0430\u0437\u0430\u0442\u0435\u043b\u0438": 3172,
  "\u2581identify": 3173,
  "\u2581\u0437\u0430\u043a\u043b\u044e\u0447\u0435\u043d\u0438\u044f": 3174,
  "\u2581\u043e\u0442\u0434\u0435\u043b\u044c\u043d\u044b\u0445": 3175,
  "\u2581morning": 3176,
  "\u2581\u0443\u043a\u0440\u0435\u043f\u043b\u0435\u043d\u0438\u0435": 3177,
  "\u2581\u0432\u043a\u043b\u044e\u0447\u0438\u0442\u044c": 3178,
  "\u2581\u0421\u043e\u0446\u0438\u0430\u043b\u044c\u043d\u043e\u0433\u043e": 3179,
  "\u2581minimum": 3180,
  "\u2581administration": 3181,
  "\u2581threat": 3182,
  "\u2581treaties": 3183,
  "\u2581\u0442\u043e\u0440\u0433\u043e\u0432\u043b\u0435": 3184,
  "\u2581\u0434\u0435\u043b\u0430\u0435\u0442": 3185,
  "\u2581serve": 3186,
  "\u2581\u0444\u043e\u0440\u043c\u0435": 3187,
  "\u2581covered": 3188,
  "\u2581\u0431\u044e\u0434\u0436\u0435\u0442": 3189,
  "\u2581balance": 3190,
  "\u0447\u0438\u0442": 3191,
  "\u2581ready": 3192,
  "\u044d\u043d": 3193,
  "\u2581event": 3194,
  "\u2581\u0434\u043e\u0431\u0438\u0442\u044c\u0441\u044f": 3195,
  "\u2581\u0432\u043e\u0435\u043d\u043d\u044b\u0445": 3196,
  "\u2581\u0441\u043b\u0435\u0434\u0443\u044e\u0449\u0438\u0445": 3197,
  "\u2581\u0421\u0435\u0439\u0447\u0430\u0441": 3198,
  "\u2581\u0443\u043b\u0443\u0447\u0448\u0435\u043d\u0438\u044f": 3199,
  "\u2581\u0433\u043e\u0434\u0430\u0445": 3200,
  "\u0441\u0442\u0432\u0443": 3201,
  "\u2581\u043e\u0437\u0430\u0431\u043e\u0447\u0435\u043d\u043d\u043e\u0441\u0442\u044c": 3202,
  "\u2581average": 3203,
  "\u2581\u0421\u043e\u0432\u0435\u0442\u0443": 3204,
  "\u0441\u0441": 3205,
  "\u2581\u0417\u0430\u043a\u043e\u043d\u0430": 3206,
  "\u2581\u043e\u0431\u0441\u043b\u0443\u0436\u0438\u0432\u0430\u043d\u0438\u0435": 3207,
  "\u2581\u0441\u0443\u043c\u043c\u0443": 3208,
  "\u2581transition": 3209,
  "\u2581punishment": 3210,
  "\u2581\u0442\u0430\u043a\u0430\u044f": 3211,
  "\u043d\u0435\u0435": 3212,
  "\u2581designed": 3213,
  "\u0438\u0440\u043e\u0432\u0430\u0442\u044c": 3214,
  "\u2581\u043f\u043e\u0432\u044b\u0448\u0435\u043d\u0438\u044e": 3215,
  "\u2581\u043e\u043f\u0435\u0440\u0430\u0446\u0438\u0438": 3216,
  "\u2581violation": 3217,
  "\u2581elections": 3218,
  "\u2581\u043e\u0431\u043c\u0435\u043d": 3219,
  "\u0447\u043b\u0435\u043d\u044b": 3220,
  "\u2581\u0447\u0435\u0442\u044b\u0440\u0435": 3221,
  "\u2581carry": 3222,
  "\u2581sh": 3223,
  "\u2581\u0441\u0442\u0440\u0430\u0436\u0435\u0439": 3224,
  "\u2581continuing": 3225,
  "\u2581\u0434\u0432\u0438\u0436\u0435\u043d\u0438\u044f": 3226,
  "\u2581\u0410\u0437\u0438\u0438": 3227,
  "\u2581consultation": 3228,
  "\u2581structure": 3229,
  "\u2581Technical": 3230,
  "\u2581\u043a\u043e\u043d": 3231,
  "\u2581Prevention": 3232,
  "\u2581\u0441\u0435\u043a\u0442\u043e\u0440\u0435": 3233,
  "ment": 3234,
  "\u2581Room": 3235,
  "\u2581\u0441\u043e\u043e\u0442\u0432\u0435\u0442\u0441\u0442\u0432\u0443\u044e\u0449\u0438\u043c": 3236,
  "\u2581seek": 3237,
  "\u2581courts": 3238,
  "\u2581\u0434\u0435\u0442\u0438": 3239,
  "\u2581Furthermore": 3240,
  "\u2581concluded": 3241,
  "\u2581\u0431\u0443\u0434\u0435\u043c": 3242,
  "\u2581stability": 3243,
  "\u0427": 3244,
  "\u2581lost": 3245,
  "\u2581\u0442\u0435\u0440\u0440\u043e\u0440\u0438\u0437\u043c\u0430": 3246,
  "\u2581relations": 3247,
  "\u2581\u0440\u0430\u0441\u043f\u0440\u043e\u0441\u0442\u0440\u0430\u043d\u0435\u043d\u0438\u044f": 3248,
  "\u0435\u0446": 3249,
  "\u2581friend": 3250,
  "\u2581\u043a\u043e\u043d\u0444\u043b\u0438\u043a\u0442\u0430": 3251,
  "\u2581\u044d\u0442\u0430\u043f\u0435": 3252,
  "\u2581cause": 3253,
  "\u2581gas": 3254,
  "\u2581\u0434\u0435\u0439\u0441\u0442\u0432\u0438\u0435": 3255,
  "\u2581\u0412\u0430\u043c": 3256,
  "\u0441\u043a\u0430\u044f": 3257,
  "\u2581collaboration": 3258,
  "60": 3259,
  "\u2581\u0440\u0430\u0431\u043e\u0442\u0430\u0442\u044c": 3260,
  "\u2581\u0441\u0430\u043c": 3261,
  "\u2581implications": 3262,
  "\u2581\u043e\u0442\u0447\u0435\u0442\u043d\u043e\u0441\u0442\u0438": 3263,
  "\u2581racial": 3264,
  "\u258163": 3265,
  "\u2581says": 3266,
  "\u2581schools": 3267,
  "\u2581\u043f\u0435\u0440\u0432\u044b\u0439": 3268,
  "\u2581Note": 3269,
  "\u2581contact": 3270,
  "\u2581encouraged": 3271,
  "\u2581\u0442\u0440\u0435\u0431\u043e\u0432\u0430\u043d\u0438\u0439": 3272,
  "\u2581\u0434\u0432\u0430\u0434\u0446\u0430\u0442\u044c": 3273,
  "\u2581nor": 3274,
  "\u043d\u0435\u0439": 3275,
  "de": 3276,
  "\u2581\u0443\u0432\u0435\u0440\u0435\u043d": 3277,
  "\u2581\u043f\u0440\u043e\u0435\u043a\u0442\u044b": 3278,
  "\u2581\u0441\u043e\u044e\u0437\u0430": 3279,
  "\u2581peaceful": 3280,
  "\u2581\u043d\u0430\u0448\u0438\u0445": 3281,
  "\u2581\u043f\u0440\u0435\u0434\u0441\u0442\u0430\u0432\u043b\u0435\u043d": 3282,
  "\u2581encourage": 3283,
  "\u043b\u0438\u0432": 3284,
  "\u2581Goals": 3285,
  "\u2581series": 3286,
  "\u2581\u0438\u043c\u0435\u044e\u0449\u0438\u0445": 3287,
  "\u2581contract": 3288,
  "\u2581\u043d\u0430\u043f\u0440\u0430\u0432\u043b\u0435\u043d\u043d\u044b\u0445": 3289,
  "\u2581\u0442\u0440\u0435\u0442\u044c\u0435\u0439": 3290,
  "\u2581\u043e\u0442\u0447\u0435\u0442": 3291,
  "\u2581\u043e\u0442\u043d\u043e\u0448\u0435\u043d\u0438\u0439": 3292,
  "\u2581\u043e\u043f\u044b\u0442": 3293,
  "\u2581\u043f\u043e\u0434\u0447\u0435\u0440\u043a\u0438\u0432\u0430\u0435\u0442": 3294,
  "\u2581intended": 3295,
  "\u2581\u0441\u043b\u0443\u0447\u0438\u043b\u043e\u0441\u044c": 3296,
  "\u2581studies": 3297,
  "\u25812006,": 3298,
  "\u2581\u043f\u0440\u043e\u0434\u043e\u043b\u0436\u0438\u0442\u0435\u043b\u044c\u043d": 3299,
  "\u2581\u0443\u0440\u0435\u0433\u0443\u043b\u0438\u0440\u043e\u0432\u0430\u043d\u0438\u044f": 3300,
  "\u2581\u043a\u0440\u043e\u043c\u0435": 3301,
  "\u2581Second": 3302,
  "ECE": 3303,
  "\u2581%": 3304,
  "\u2581completed": 3305,
  "\u2581\u043a\u0430\u043a\u0438\u043c": 3306,
  "\u2581France": 3307,
  "\u2581\u043e\u0440\u0433\u0430\u043d\u0430": 3308,
  "\u2581task": 3309,
  "\u2581\u0438\u043d\u0432\u0435\u0441\u0442\u0438\u0446\u0438\u0439": 3310,
  "\u2581continues": 3311,
  "\u2581\u0440\u0430\u0441\u0441\u043c\u043e\u0442\u0440\u0435\u043d\u0438\u0438": 3312,
  "\u2581loss": 3313,
  "\u043e\u043e\u0442\u0432\u0435\u0442\u0441\u0442\u0432\u0443\u044e\u0449\u0438\u043c\u0438": 3314,
  "\u2581assets": 3315,
  "\u2581whom": 3316,
  "\u2581associated": 3317,
  "\u2581\u0434\u043e\u0433\u043e\u0432\u043e\u0440\u043e\u0432": 3318,
  "\u0441\u0442\u0430\u043d": 3319,
  "making": 3320,
  "\u2581prepare": 3321,
  "\u2581lives": 3322,
  "\u2581sufficient": 3323,
  "\u043b\u044b": 3324,
  "\u0434\u0451\u0442": 3325,
  "\u2581truth": 3326,
  "ant": 3327,
  "\u2581\u2212": 3328,
  "\u2581\u0447\u0435\u0442\u0432\u0435\u0440\u0442\u043e\u0439": 3329,
  "\u2581addressing": 3330,
  "\u2581\u0432\u043d\u0443\u0442\u0440\u0435\u043d\u043d\u0435\u0433\u043e": 3331,
  "\u2581\u043f\u0440\u0430\u0432\u0443": 3332,
  "\u2581create": 3333,
  "\u2581\u043a\u043e\u0442\u043e\u0440\u043e\u043c\u0443": 3334,
  "\u2581\u043d\u0430\u0448\u0438": 3335,
  "\u2581\u0432\u044b\u043f\u043e\u043b\u043d\u044f\u0442\u044c": 3336,
  "responsibilities": 3337,
  "\u2581emissions": 3338,
  "\u2581\u043f\u0435\u0440\u0435\u0434\u0430\u0447\u0438": 3339,
  "\u2581consensus": 3340,
  "\u2581\u043c\u043e\u0435\u0433\u043e": 3341,
  "\u2581\u0432\u0441\u0442\u0440\u0435\u0447\u0438": 3342,
  "\u2581safe": 3343,
  "\u2581UNECE": 3344,
  "el": 3345,
  "\u2581wait": 3346,
  "\u0438\u043b\u0441\u044f": 3347,
  "\u2581submission": 3348,
  "\u2581\u0434\u043e\u043b\u0436\u043d\u043e\u0441\u0442\u044c": 3349,
  "\u2581clearly": 3350,
  "\u0443\u0447\u0430\u0441\u0442\u043d\u0438\u043a\u043e\u0432": 3351,
  "\u2581\u043a\u0430\u043a\u0438\u0445": 3352,
  "\u2581Countries": 3353,
  "\u2581stage": 3354,
  "\u2581Transport": 3355,
  "\u2581500": 3356,
  "\u2581supply": 3357,
  "\u258159": 3358,
  "\u2581\u0434\u0438\u0430\u043b\u043e\u0433\u0430": 3359,
  "ling": 3360,
  "\u2581\u0440\u0430\u0431\u043e\u0442\u043d\u0438\u043a\u043e\u0432": 3361,
  "\u2581yourself": 3362,
  "\u044d\u0442": 3363,
  "\u2581\u0441\u043d\u043e\u0432\u0430": 3364,
  "\u2581\u043e\u043a\u043e\u043b\u043e": 3365,
  "\u2581\u0437\u0430\u0442\u0435\u043c": 3366,
  "\u2581\u043e\u0431\u0449\u0435\u0441\u0442\u0432\u0435\u043d\u043d\u043e\u0441\u0442\u0438": 3367,
  "\u2581\u043f\u0440\u0435\u0434\u043b\u043e\u0436\u0435\u043d\u0438\u0439": 3368,
  "\u2581American": 3369,
  "\u2581\u0440\u0443\u043a\u043e\u0432\u043e\u0434\u0441\u0442\u0432\u043e": 3370,
  "\u25819.": 3371,
  "\u2581\u0437\u0430\u043a\u043b\u044e\u0447\u0430\u0435\u0442\u0441\u044f": 3372,
  "\u0437\u043d": 3373,
  "/201": 3374,
  "\u2581\u043f\u0440\u0435\u0434\u0441\u0442\u0430\u0432\u043b\u0435\u043d\u044b": 3375,
  "\u2581\u043f\u044f\u0442\u0438": 3376,
  "\u2581\u043d\u0430\u043f\u0440\u0430\u0432\u043b\u0435\u043d\u043d\u044b\u0435": 3377,
  "\u2581\u043c\u043e\u043b\u043e\u0434\u0435\u0436\u0438": 3378,
  "\u2581\u0432\u043a\u043b\u044e\u0447\u0430\u0435\u0442": 3379,
  "\u2581observations": 3380,
  "\u2581build": 3381,
  "\u2581delivery": 3382,
  "\u2581Joint": 3383,
  "\u2581UNEP": 3384,
  "\u25812004,": 3385,
  "\u2581ad": 3386,
  "\u2581entry": 3387,
  "\u0440\u0435\u0431": 3388,
  "\u2581creation": 3389,
  "\u2581\u0440\u0435\u0448\u0435\u043d\u0438\u0438": 3390,
  "\u2581Pacific": 3391,
  "\u2581\u0442\u0438\u043f\u0430": 3392,
  "\u2581Have": 3393,
  "\u2581\u0437\u043d\u0430": 3394,
  "\u2581vulnerable": 3395,
  "\u2581judges": 3396,
  "\u2581detailed": 3397,
  "\u2581consequences": 3398,
  "0": 3399,
  "\u2581\u0440\u0430\u0441\u0441\u043c\u0430\u0442\u0440\u0438\u0432\u0430\u0442\u044c": 3400,
  "\u258166": 3401,
  "\u2581\u043f\u043e\u043f\u0440\u0430\u0432\u043a\u0438": 3402,
  "\u2581\u043e\u0442\u043c\u0435\u0442\u0438\u043b\u0430": 3403,
  "\u25812003,": 3404,
  "\u2581\u0438\u0434\u0435\u0442": 3405,
  "\u2581ground": 3406,
  "\u2581personal": 3407,
  "\u2581Central": 3408,
  "Y": 3409,
  "\u2581improved": 3410,
  "\u2581relationship": 3411,
  "\u2581\u0441\u043c\u0435\u0440\u0442\u0438": 3412,
  "\u2581\u0441\u0435\u0442\u0438": 3413,
  "\u2581t": 3414,
  "\u2581\u043f\u0440\u043e\u0431\u043b\u0435\u043c\u0430\u043c": 3415,
  "\u043d\u043e\u0432": 3416,
  "\u043b\u043e\u0432": 3417,
  "\u2581\u043d\u0435\u043c\u0443": 3418,
  "\u2581dollars": 3419,
  "\u25812002,": 3420,
  "\u2581\u0434\u0430\u0442\u044c": 3421,
  "\u2581\u0440\u0430\u0437\u0434\u0435\u043b": 3422,
  "\u2581ii": 3423,
  "\u2581specialized": 3424,
  "\u2581Experts": 3425,
  "\u2581establishing": 3426,
  "\u0448\u0438": 3427,
  "\u2581design": 3428,
  "\u2581\u0421\u0435\u043a\u0440\u0435\u0442\u0430\u0440\u0438\u0430\u0442": 3429,
  "\u2581\u043d\u0430\u0448": 3430,
  "\u2581\u0441\u043e\u0441\u0442\u043e\u0438\u0442": 3431,
  "\u2581\u043f\u0440\u0430\u0432\u0438\u043b\u043e": 3432,
  "\u2581Elimination": 3433,
  "dy": 3434,
  "\u2581factors": 3435,
  "\u2581aid": 3436,
  "\u2581\u043c\u0430\u0441\u0441\u043e\u0432\u043e\u0439": 3437,
  "\u2581\u0448\u0435\u0441\u0442\u044c\u0434\u0435\u0441\u044f\u0442": 3438,
  "\u043f\u0438\u0441": 3439,
  "\u2581signed": 3440,
  "\u2581word": 3441,
  "\u2581defined": 3442,
  "\u2581\u0437\u0430\u043a\u043b\u044e\u0447\u0435\u043d\u0438\u0435": 3443,
  "\u2581parts": 3444,
  "\u2581model": 3445,
  "\u2581\u043e\u0431\u044b\u0447\u043d\u043e": 3446,
  "\u2581earth": 3447,
  "\u0440\u0430\u0437": 3448,
  "\u2581\u041a\u043e\u043d\u0444\u0435\u0440\u0435\u043d\u0446\u0438\u044f": 3449,
  "\u2581\u0433\u043e\u0441\u0443\u0434\u0430\u0440\u0441\u0442\u0432\u043e\u043c": 3450,
  "\u2581\u0437\u0430\u043a\u043e\u043d\u043e\u0432": 3451,
  "\u2581\u043e\u0446\u0435\u043d\u043a\u0430": 3452,
  "\u2581pressure": 3453,
  "\u2581\u0441\u0442\u0430\u043b": 3454,
  "\u2581\u0441\u043e\u0442\u0440\u0443\u0434\u043d\u0438\u0447\u0435\u0441\u0442\u0432\u0443": 3455,
  "\u258167": 3456,
  "\u0441\u0441\u0438": 3457,
  "\u2581\u043e\u0440\u0443\u0436\u0438\u0435\u043c": 3458,
  "\u2581\u043f\u0440\u0435\u0434\u043b\u0430\u0433\u0430\u0435\u0442\u0441\u044f": 3459,
  "\u2581Co": 3460,
  "\u2581initial": 3461,
  "\u2581English": 3462,
  "\u2581\u0437\u0430\u043b\u0435": 3463,
  "\u043e\u0437": 3464,
  "\u2581\u0423\u043f\u0440\u0430\u0432\u043b\u0435\u043d\u0438\u0435": 3465,
  "\u2581Canada": 3466,
  "\u0432\u0430\u0442": 3467,
  "\u2581\u043f\u0440\u0435\u0434\u0441\u0442\u0430\u0432\u043b\u044f\u0442\u044c": 3468,
  "\u2581\u0433\u0440\u0443\u043f\u043f\u0443": 3469,
  "\u2581fund": 3470,
  "\u2581advice": 3471,
  "\u2581\u043f\u0435\u0440\u0432\u043e\u0433\u043e": 3472,
  "\u2581states": 3473,
  "\u2581mass": 3474,
  "7": 3475,
  "\u2581terrorist": 3476,
  "\u2581wife": 3477,
  "\u2581\u043a\u043e\u043d\u0435\u0447\u043d\u043e": 3478,
  "\u2581\u043e\u043f\u0430\u0441\u043d\u043e\u0441\u0442\u0438": 3479,
  "\u2581\u043f\u0440\u0438\u043c\u0435\u0440\u043d\u043e": 3480,
  "\u0431\u0438\u043b": 3481,
  "\u2581\u043f\u043e\u0434\u0433\u043e\u0442\u043e\u0432\u043a\u0430": 3482,
  "\u2581\u0443\u043f\u0440\u0430\u0432\u043b\u0435\u043d\u0438\u0435": 3483,
  "\u0440\u0443\u0436": 3484,
  "\u2581instrument": 3485,
  "\u2014": 3486,
  "\u2581\u0441\u0443\u0434\u0435\u0431\u043d\u044b\u0445": 3487,
  "40": 3488,
  "\u2581\u043f\u0440\u043e\u0432\u0435\u0434\u0435\u043d\u0438\u044e": 3489,
  "\u0440\u0430\u0432": 3490,
  "\u2581\u043f\u043e\u043b\u0443\u0447\u0438\u043b": 3491,
  "\u2581US": 3492,
  "\u2581\u043a\u043e\u043b\u0438\u0447\u0435\u0441\u0442\u0432\u043e": 3493,
  "\u2581\u0441\u043e\u0437\u0434\u0430\u043d\u0438\u0438": 3494,
  "\u2581\u041d\u041f\u041e": 3495,
  "\u25812007,": 3496,
  "\u2581\u0440\u0430\u0439\u043e\u043d\u0435": 3497,
  "\u2581regime": 3498,
  "\u2581\u0438\u043d\u0442\u0435\u0440\u0435\u0441": 3499,
  "\u2581\u0441\u043e\u0440\u043e\u043a": 3500,
  "\u2581trial": 3501,
  "am": 3502,
  "\u2581criteria": 3503,
  "\u2581\u043b\u044e\u0431\u044b\u0445": 3504,
  "\u2581\u0421\u0435\u043a\u0440\u0435\u0442\u0430\u0440\u0438\u0430\u0442\u0430": 3505,
  "\u2581sixty": 3506,
  "\u2581Be": 3507,
  "\u2581Although": 3508,
  "\u2581economies": 3509,
  "/1": 3510,
  "\u2581\u0431\u0435\u0434\u0441\u0442\u0432\u0438\u0439": 3511,
  "\u2581takes": 3512,
  ".1,": 3513,
  "\u2581reflected": 3514,
  "\u2581\u043e\u0434\u043d\u0443": 3515,
  "\u2581\u0444\u043e\u043d\u0434": 3516,
  "\u2581anyone": 3517,
  "\u2581heart": 3518,
  "\u2581regions": 3519,
  "\u0446\u0430": 3520,
  "\u2581\u043a\u043e\u0434\u0435\u043a\u0441\u0430": 3521,
  "\u2581\u0441\u0443\u0449\u0435\u0441\u0442\u0432\u0443\u044e\u0449\u0438\u0445": 3522,
  "\u2581Legal": 3523,
  "\u2581\u043f\u043e\u0441\u0442\u0430\u043d\u043e\u0432\u043b\u044f\u0435\u0442": 3524,
  "\u2581\u043d\u0430\u0445\u043e\u0434\u0438\u0442\u0441\u044f": 3525,
  "\u2581permanent": 3526,
  "\u042e": 3527,
  "\u2581welcome": 3528,
  "\u2581rest": 3529,
  "\u2581\u0438\u0441\u043f\u043e\u043b\u043d\u0435\u043d\u0438\u0435": 3530,
  "\u2581\u043f\u043e\u043b\u043e\u0436\u0435\u043d\u0438\u044f\u043c\u0438": 3531,
  "\u2581\u043f\u043b\u0430\u043d\u043e\u0432": 3532,
  "\u2581(20": 3533,
  "\u2581\u0440\u0430\u0437\u043e\u0440\u0443\u0436\u0435\u043d\u0438\u044e": 3534,
  "\u2581demand": 3535,
  "\u2581Persons": 3536,
  "ate": 3537,
  "\u2581expenditure": 3538,
  "\u043b\u0438\u0447": 3539,
  "\u0435\u043a": 3540,
  "\u2581almost": 3541,
  "\u0441\u0442\u0440\u043e": 3542,
  "\u2581visit": 3543,
  "\u2581achievement": 3544,
  "\u2581\u043f\u043e\u0440\u044f\u0434\u043a\u0430": 3545,
  "\u2581\u0430\u0441\u043f\u0435\u043a\u0442\u044b": 3546,
  "\u2581\u0432\u0441\u044e": 3547,
  "\u2581Or": 3548,
  "\u2581approaches": 3549,
  "\u0432\u043e\u0434": 3550,
  "\u2581\u043f\u0440\u0438\u043b\u043e\u0436\u0435\u043d\u0438\u044f": 3551,
  "\u0440\u0435\u0437\u043e\u043b\u044e\u0446\u0438\u044f": 3552,
  "\u2581\u043d\u0430\u043c\u0438": 3553,
  "\u2581\u0438\u043d\u0438\u0446\u0438\u0430\u0442\u0438\u0432": 3554,
  "\u2581\u043e\u0431\u043e\u0440\u0443\u0434\u043e\u0432\u0430\u043d\u0438\u044f": 3555,
  "\u2581\u0434\u043e\u043c": 3556,
  "\u0449": 3557,
  "\u2581\u043f\u043e\u0437\u0432\u043e\u043b\u0438\u0442": 3558,
  "\u25812008,": 3559,
  "\u2581\u043c\u043d\u0435\u043d\u0438\u044f": 3560,
  "\u2581conclusions": 3561,
  "\u2581external": 3562,
  "\u2581hell": 3563,
  "\u2581\u0437\u0430\u0434\u043e\u043b\u0436\u0435\u043d\u043d\u043e\u0441\u0442\u0438": 3564,
  "\u2581bilateral": 3565,
  "\u2581\u0431\u0435\u0437\u043e\u043f\u0430\u0441\u043d\u043e\u0441\u0442\u044c": 3566,
  "\u2581\u0421\u043b\u0435\u0434\u0443\u0435\u0442": 3567,
  "80": 3568,
  "\u2581\u0432\u043e\u0437\u0434\u0435\u0439\u0441\u0442\u0432\u0438\u0435": 3569,
  "\u2581maybe": 3570,
  "\u2581Day": 3571,
  "65": 3572,
  "\u043d\u0435\u0442": 3573,
  "\u2581\u043d\u0435\u043e\u0431\u0445\u043e\u0434\u0438\u043c\u044b\u0435": 3574,
  "\u2581\u0434\u043e\u0441\u0442\u0438\u0436\u0435\u043d\u0438\u0435": 3575,
  "\u2581\u0421\u0442\u0440": 3576,
  "\u2581\u0441\u0442\u0440\u0443\u043a\u0442\u0443\u0440\u044b": 3577,
  "\u2581although": 3578,
  "\u2581record": 3579,
  "\u2581led": 3580,
  "\u2581\u0433\u0443\u043c\u0430\u043d\u0438\u0442\u0430\u0440\u043d\u043e\u0439": 3581,
  "\u2581(1": 3582,
  "].": 3583,
  "\u2581\u043d\u0435\u043b\u044c\u0437\u044f": 3584,
  "ING": 3585,
  "\u2581\u0438\u043d\u0432\u0430\u043b\u0438\u0434\u043e\u0432": 3586,
  "\u2581\u043a\u0440\u0430\u0439\u043d\u0435\u0439": 3587,
  "\u2581Caribbean": 3588,
  "\u2581\u043d\u0435\u0434\u0430\u0432\u043d\u043e": 3589,
  "co": 3590,
  "\u2581described": 3591,
  "\u2581recently": 3592,
  "\u2581across": 3593,
  "\u2581Chair": 3594,
  "ce": 3595,
  "\u2581\u043e\u0440\u0433\u0430\u043d": 3596,
  "\u2581rural": 3597,
  "\u2581\u0441\u0442\u043e\u0440\u043e\u043d\u0430\u043c\u0438": 3598,
  "ne": 3599,
  "\u2581\u043c\u043e\u043c\u0435\u043d\u0442\u0430": 3600,
  "\u0442\u043e\u0440": 3601,
  "\u2581everyone": 3602,
  "ow": 3603,
  "\u2581\u0434\u043e\u0433\u043e\u0432\u043e\u0440\u0430": 3604,
  "\u2581\u0441\u043f\u0435\u0446\u0438\u0430\u043b\u0438\u0437\u0438\u0440\u043e\u0432\u0430\u043d": 3605,
  "\u2581\u0432\u043e\u0437\u0440\u0430\u0441\u0442\u0430": 3606,
  "\u2581\u043f\u0440\u0435\u0434\u043e\u0442\u0432\u0440\u0430\u0449\u0435\u043d\u0438\u044f": 3607,
  "\u2581lower": 3608,
  "\u0449\u0435": 3609,
  "\u0435\u0433\u043e": 3610,
  "\u2581\u0441\u0443\u0434\u0435\u0431\u043d\u043e\u0433\u043e": 3611,
  "\u2581\u0441\u043e\u043a\u0440\u0430\u0449\u0435\u043d\u0438\u0435": 3612,
  "\u044c\u0435": 3613,
  "\u2581jurisdiction": 3614,
  "\u2581\u043d\u0430\u0440\u0443\u0448\u0435\u043d\u0438\u0439": 3615,
  "\u258175": 3616,
  "\u2581governance": 3617,
  "\u2581\u0444\u043e\u043d\u0434\u0430": 3618,
  "\u2581\u041f\u0440\u0435\u0434\u0441\u0442\u0430\u0432\u0438\u0442\u0435\u043b\u044c": 3619,
  "\u2581requires": 3620,
  "\u2581friends": 3621,
  "\u25812000,": 3622,
  "\u2581\u041f\u0430\u043a\u0442\u0430": 3623,
  "\u2581Disarmament": 3624,
  "\u2581\u0437\u0430\u043d\u044f\u0442\u043e\u0441\u0442\u0438": 3625,
  "\u2581\u043f\u0443\u043d\u043a\u0442\u0430\u0445": 3626,
  "\u2581Optional": 3627,
  "\u2581\u043f\u0440\u0435\u0434\u0432\u0430\u0440\u0438\u0442\u0435\u043b\u044c\u043d\u043e\u0439": 3628,
  "\u2581successful": 3629,
  "\u2581started": 3630,
  "\u2581\u0414\u0435": 3631,
  "\u2581\u043d\u0430\u0441\u0442\u043e\u044f\u0449\u0435\u0433\u043e": 3632,
  "\u2581\u043b\u0438\u0446\u0430\u043c": 3633,
  "\u2581civilian": 3634,
  "\u2581\u043d\u0440\u0430\u0432\u0438\u0442\u0441\u044f": 3635,
  "\u2581\u0442\u0435\u0445\u043d\u0438\u0447\u0435\u0441\u043a\u0438\u0445": 3636,
  "\u2581refugees": 3637,
  "\u0441\u043a\u0430": 3638,
  "\u2581construction": 3639,
  "\u0433\u043d": 3640,
  "\u2581network": 3641,
  "\u0435\u0432": 3642,
  "\u2581Germany": 3643,
  "\u2581settlement": 3644,
  "\u2581\u0443\u0432\u0435\u043b\u0438\u0447\u0435\u043d\u0438\u0435": 3645,
  "\u2581\u043f\u0440\u0435\u0434\u0443\u043f\u0440\u0435\u0436\u0434\u0435\u043d\u0438\u044e": 3646,
  "\u2581\u043a\u0430\u0434\u0440\u043e\u0432": 3647,
  "\u2581beyond": 3648,
  "\u2581Thanks": 3649,
  "\u2581\u0441\u0432\u043e\u0438\u043c\u0438": 3650,
  "\u2581\u0432\u043d\u0443\u0442\u0440\u0438": 3651,
  "\u2581\u0422\u0430\u0431\u043b\u0438\u0446\u0430": 3652,
  "\u2581\u043f\u043e\u0441\u0442\u043e\u044f\u043d\u043d\u043e": 3653,
  "\u2581positions": 3654,
  "\u2581scientific": 3655,
  "\u2581goal": 3656,
  "\u2581\u0432\u043e\u0434\u044b": 3657,
  "\u2581\u043e\u0431\u0435\u0441\u043f\u0435\u0447\u0435\u043d\u0438\u0438": 3658,
  "\u2581\u043f\u0440\u043e\u0438\u0441\u0445\u043e\u0436\u0434\u0435\u043d\u0438\u044f": 3659,
  "\u2581summary": 3660,
  "\u2581\u0433\u0435\u043d\u0434\u0435\u0440\u043d\u043e\u0433\u043e": 3661,
  "\u2581solution": 3662,
  "\u2581\u043f\u0440\u043e\u0442\u044f\u0436\u0435\u043d\u0438\u0438": 3663,
  "\u044f\u0442\u0441\u044f": 3664,
  "\u2581\u0427": 3665,
  "\u2581\u0441\u043a\u043e\u0440\u0435\u0435": 3666,
  "\u2581supporting": 3667,
  "\u2581mine": 3668,
  "\u2581\u041c\u0435\u0436\u0434\u0443\u043d\u0430\u0440\u043e\u0434\u043d\u0430\u044f": 3669,
  "\u2581\u0434\u043e\u043a\u043b\u0430\u0434\u0447\u0438\u043a\u0430": 3670,
  "\u2581\u0411\u044e\u0440\u043e": 3671,
  "ul": 3672,
  "\u2581\u0441\u0440\u0435\u0434\u0435": 3673,
  "\u2581\u043a\u043e\u043d\u0435\u0446": 3674,
  "\u2581Afghanistan": 3675,
  "\u2581\u0443\u0441\u0442\u043e\u0439\u0447\u0438\u0432\u043e\u043c\u0443": 3676,
  "\u044c\u0442\u0435": 3677,
  "\u0441\u043e\u043d": 3678,
  "\u2581educational": 3679,
  "\u044e\u0449\u0438\u0435": 3680,
  "\u2581definition": 3681,
  "\u2581\u0441\u043b\u0443\u0436\u0431": 3682,
  "\u25813,": 3683,
  "\u2581\u043c\u0430\u0442\u0435\u0440\u0438\u0430\u043b\u044b": 3684,
  "ist": 3685,
  "\u2581\u043f\u0430": 3686,
  "90": 3687,
  "\u2581core": 3688,
  "\u2581\u0443\u0447\u0430\u0441\u0442\u0438\u0435\u043c": 3689,
  "\u25812001,": 3690,
  "\u043d\u0443\u043b": 3691,
  "\u2581\u043c\u0438\u0441\u0441\u0438\u0439": 3692,
  "\u2581electronic": 3693,
  "\u0442\u0432\u043e\u0440": 3694,
  "\u2581fire": 3695,
  "\u2581Vienna": 3696,
  "\u2581\u041a\u043e\u043d\u0441\u0443\u043b\u044c\u0442\u0430\u0442\u0438\u0432\u043d\u044b\u0439": 3697,
  "\u2581\u0434\u0430\u043b\u044c\u043d\u0435\u0439\u0448\u0435\u0433\u043e": 3698,
  "\u0446": 3699,
  "\u2581Nuclear": 3700,
  "\u2581\u0438\u0441\u043f\u044b\u0442\u0430\u043d\u0438\u044f": 3701,
  "\u2581\u043f\u0440\u043e\u0434\u043e\u043b\u0436\u0430\u0435\u0442": 3702,
  "\u2581nice": 3703,
  "\u043c\u0438\u043c\u043e": 3704,
  "\u2581\u0418\u0441\u043f\u043e\u043b\u043d\u0438\u0442\u0435\u043b\u044c\u043d": 3705,
  "\u2581fair": 3706,
  "\u2581Get": 3707,
  "8": 3708,
  "\u2581measure": 3709,
  "\u2581\u0440\u0443\u043a\u043e\u0432\u043e\u0434\u0441\u0442\u0432\u0430": 3710,
  "\u2581\u0415\u0432\u0440\u043e\u043f\u044b": 3711,
  "\u2581\u0434\u0438": 3712,
  "\u2581\u0438\u043d\u0444\u0440\u0430\u0441\u0442\u0440\u0443\u043a\u0442\u0443\u0440\u044b": 3713,
  "\u2581female": 3714,
  "\u043d\u043e\u0441": 3715,
  "70": 3716,
  "\u2581\u044f\u0437\u044b\u043a\u0435": 3717,
  "\u2581\u0441\u0442\u0430\u043b\u043e": 3718,
  "\u2581cut": 3719,
  "\u2581\u0432\u0437\u043d\u043e\u0441\u044b": 3720,
  "\u2581\u0434\u0435\u043d\u044c\u0433\u0438": 3721,
  "\u2581consistent": 3722,
  "\u2581Middle": 3723,
  "\u2581\u0428\u0442\u0430\u0442\u043e\u0432": 3724,
  "\u0431\u0440\u0430": 3725,
  "\u2581\u0422\u0435": 3726,
  "\u2581\u043e\u0441\u0442\u0430\u0435\u0442\u0441\u044f": 3727,
  "\u2581\u044d\u0442\u0438\u043c\u0438": 3728,
  "\u2581beginning": 3729,
  "ty": 3730,
  "\u043a\u0440\u0430": 3731,
  "\u2581\u043c\u0438\u043d\u0443\u0442": 3732,
  "2.": 3733,
  "WG": 3734,
  "\u2581\u0426": 3735,
  "\u2581units": 3736,
  "\u2581\u0430\u043a\u0442\u043e\u0432": 3737,
  "\u2581useful": 3738,
  "\u2581\u043c\u0435\u043d\u044c\u0448\u0438\u043d\u0441\u0442\u0432": 3739,
  "\u2581illegal": 3740,
  "\u2581\u0433\u043e\u0440": 3741,
  "\u2581\u0441\u043b\u043e\u0432\u043e": 3742,
  "\u2581\u043f\u0440\u0435\u0434\u0441\u0442\u0430\u0432\u043b\u0435\u043d\u0438\u0435": 3743,
  "\u2581damage": 3744,
  "\u2581presence": 3745,
  "\u2581\u043d\u0438\u043a\u0442\u043e": 3746,
  "ization": 3747,
  "\u043a\u0441": 3748,
  "\u2581\u0440\u0435\u0433\u0438\u043e\u043d\u0430\u043b\u044c\u043d\u044b\u0435": 3749,
  "\u2581\u043f\u0440\u0438\u043d\u044f\u0442\u044b\u0435": 3750,
  "\u043a\u043e\u0440": 3751,
  "\u043b\u0443\u0447": 3752,
  "\u2581(19": 3753,
  "\u2581mo": 3754,
  "\u0433\u043b\u044f": 3755,
  "\u2581\u0444\u0443\u043d\u043a\u0446\u0438\u0439": 3756,
  "\u2581appeal": 3757,
  "\u2581followed": 3758,
  "\u2581\u0432\u0435\u0447\u0435\u0440": 3759,
  "\u0435\u0441\u043c\u043e\u0442\u0440\u044f": 3760,
  "\u2581\u0437\u043d\u0430\u0435\u0442\u0435": 3761,
  "\u2581involving": 3762,
  "ol": 3763,
  "\u0441\u0443": 3764,
  "\u0431\u0443": 3765,
  "\u2581conclusion": 3766,
  "\u2581challenge": 3767,
  "/62/": 3768,
  "\u2581\u043c\u043e\u0436\u0435\u0442\u0435": 3769,
  "\u2581illicit": 3770,
  "\u2581\u0443\u0449\u0435\u0440\u0431\u0430": 3771,
  "\u2581partnership": 3772,
  "\u0447\u043a\u0430": 3773,
  "\u0434\u0435\u0442": 3774,
  "\u2581\u0434\u043e\u043c\u043e\u0439": 3775,
  "\u2581ethnic": 3776,
  "\u2581aim": 3777,
  "\u2581phase": 3778,
  "\u2581\u0440\u0430\u0437\u0440\u0430\u0431\u043e\u0442\u0430\u0442\u044c": 3779,
  "\u2581Inter": 3780,
  "\u2581\u041f\u0440\u043e\u0433\u0440\u0430\u043c\u043c\u0430": 3781,
  "\u2581\u043f\u0440\u043e\u0431\u043b\u0435\u043c\u0430": 3782,
  "\u2581\u0431\u043e\u043b\u044c\u0448\u0438\u043d\u0441\u0442\u0432\u043e": 3783,
  "\u2581\u041a\u043e\u0440": 3784,
  "\u2581\u043e\u0442\u043d\u043e\u0441\u044f\u0442\u0441\u044f": 3785,
  "\u2581\u0441\u043c\u043e\u0433": 3786,
  "\u2581billion": 3787,
  "\u2581\u041a\u043e\u043d\u0432\u0435\u043d\u0446\u0438\u044f": 3788,
  "of": 3789,
  "et": 3790,
  "\u2581reach": 3791,
  "\u2581maintain": 3792,
  "iv": 3793,
  "\u0442\u0440\u0430": 3794,
  "\u2581\u043e\u0442\u043d\u043e\u0448\u0435\u043d\u0438\u0435": 3795,
  "\u2581\u043f\u043e\u043a\u0430\u0437\u0430\u0442\u0435\u043b\u044c": 3796,
  "\u2581\u0432\u0430\u0436\u043d\u044b\u043c": 3797,
  "\u2581\u043f\u0440\u043e\u0434\u043e\u0432\u043e\u043b\u044c\u0441\u0442\u0432\u0435\u043d\u043d": 3798,
  "\u2581Latin": 3799,
  "\u2581\u0423\u043f\u0440\u0430\u0432\u043b\u0435\u043d\u0438\u044f": 3800,
  "\u2581\u0441\u0434\u0435\u043b\u0430\u043b\u0438": 3801,
  "\u2581\u043c\u0435\u0445\u0430\u043d\u0438\u0437\u043c": 3802,
  "\u2581conflicts": 3803,
  "\u2581avoid": 3804,
  "\u2581resulting": 3805,
  "\u043c\u0435\u0442": 3806,
  "\u2581Coordination": 3807,
  "\u2581cross": 3808,
  "SR": 3809,
  "\u2581procurement": 3810,
  "\u043d\u0443\u0442\u044c": 3811,
  "\u2581except": 3812,
  "\u0443\u043c": 3813,
  "\u2581formal": 3814,
  "ion": 3815,
  "\u2581sea": 3816,
  "\u2581\u0443\u0449\u0435\u0440\u0431": 3817,
  "\u2581\u0441\u0435\u043c\u044c\u0435": 3818,
  "\u2581\u0441\u0442\u0430\u0442\u044c\u0435\u0439": 3819,
  "\u2581forty": 3820,
  "\u2581\u043a\u043e\u043c\u0438\u0441\u0441\u0438\u044f": 3821,
  "\u2581knows": 3822,
  "\u2581alternative": 3823,
  "\u0434\u0435\u043b": 3824,
  "rs": 3825,
  "\u2581written": 3826,
  "nd": 3827,
  "\u2581Ex": 3828,
  "\u2581caused": 3829,
  "\u2581\u0442\u0440\u0430\u043d\u0441\u043f\u043e\u0440\u0442\u0430": 3830,
  "ick": 3831,
  "\u0440\u0430\u043d": 3832,
  "\u2581\u0433\u0440\u0430\u0436\u0434\u0430\u043d": 3833,
  "/61/": 3834,
  "\u0438\u0442\u0435\u0441\u044c": 3835,
  "\u2581discuss": 3836,
  "-1": 3837,
  "\u2581\u043f\u0443\u0442\u044c": 3838,
  "\u2581shown": 3839,
  "\u044e\u0449\u0438\u0445": 3840,
  "\u2581youth": 3841,
  "\u2581\u0437\u0430\u0432\u0435\u0440\u0448\u0435\u043d\u0438\u044f": 3842,
  "\u2581figure": 3843,
  "\u2581da": 3844,
  "\u2581\u0446\u0435\u043d\u0442\u0440": 3845,
  "\u2581\u0442\u043e\u0447\u043d\u043e": 3846,
  "\u2581disabilities": 3847,
  "j": 3848,
  "\u043d\u0438\u043c": 3849,
  "15": 3850,
  "\u2581\u0438\u0442\u043e\u0433\u0430\u043c": 3851,
  "\u2581\u0436\u0438\u0432": 3852,
  "one": 3853,
  "\u2581\u0441\u0432\u044f\u0437\u0430\u043d\u043d\u043e\u0439": 3854,
  "\u2581\u041a\u043e\u043d\u0441\u0442\u0438\u0442\u0443\u0446\u0438\u0438": 3855,
  "\u2581\u0433\u0443\u043c\u0430\u043d\u0438\u0442\u0430\u0440\u043d\u043e\u0433\u043e": 3856,
  "\u2581success": 3857,
  "\u2581\u043f\u043e\u043b\u043d\u043e\u043c\u043e\u0447\u0438\u0439": 3858,
  "\u2581\u043e\u0442\u0435\u0446": 3859,
  "\u2581\u0441\u0442\u0440\u0430\u043d\u0430": 3860,
  "\u2581h": 3861,
  "\u2581possibility": 3862,
  ".10": 3863,
  "\u2581\u0434\u0430\u043d\u043d\u044b\u0439": 3864,
  "\u2581\u041d\u0435\u043a\u043e\u0442\u043e\u0440\u044b\u0435": 3865,
  "land": 3866,
  "\u2581\u0432\u043e\u043e\u0431\u0449\u0435": 3867,
  "\u2581religious": 3868,
  "\u2581India": 3869,
  "\u2581territory": 3870,
  "\u2581Moreover": 3871,
  "\u2581\u0447\u0430\u0441\u043e\u0432": 3872,
  "\u2581\u043f\u043e\u043b\u0438\u0442\u0438\u043a\u0443": 3873,
  "\u2581300": 3874,
  "\u2581Requests": 3875,
  "no": 3876,
  "\u2581\u0418\u0437\u0440\u0430\u0438\u043b\u044f": 3877,
  "\u2581minutes": 3878,
  "\u2581\u043e\u0441\u043e\u0431\u043e": 3879,
  "\u2581\u0431\u043e\u043b\u044c\u0448\u043e\u0435": 3880,
  "\u2581reflect": 3881,
  "\u2581company": 3882,
  "\u2581\u043e\u0440\u0433\u0430\u043d\u0438\u0437\u0430\u0446\u0438\u044f\u043c": 3883,
  "\u2581category": 3884,
  "\u2581remained": 3885,
  "\u0438\u043c\u0438": 3886,
  "\u2581Adoption": 3887,
  "\u2581monitor": 3888,
  "\u2581\u0438\u043c\u0443\u0449\u0435\u0441\u0442\u0432\u0430": 3889,
  "\u2581\u0434\u0435\u043d\u0435\u0433": 3890,
  "\u2581\u043d\u0430\u043a\u0430\u0437\u0430\u043d\u0438\u0435": 3891,
  "\u2581Sudan": 3892,
  "\u2581dis": 3893,
  "\u2581\u0438\u0441\u043a\u043b\u044e\u0447\u0438\u0442\u0435\u043b\u044c\u043d\u043e": 3894,
  "\u043d\u0438\u043a\u0438": 3895,
  "\u2581\u0442\u0440\u0430\u043d\u0441\u043f\u043e\u0440\u0442\u043d\u043e\u0433\u043e": 3896,
  "\u2581\u0440\u043e\u0441\u0442": 3897,
  "\u2581\u043a\u043e\u043c\u043f\u0430\u043d\u0438\u0438": 3898,
  "\u043e\u0432\u0430\u043b\u0438": 3899,
  "\u0441\u0442\u0443\u043f": 3900,
  "\u2581leaders": 3901,
  "\u258168": 3902,
  "\u2581\u0420\u043e": 3903,
  "\u2581subregional": 3904,
  "night": 3905,
  "\u2581\u0438\u0437\u0432\u0435\u0441\u0442\u043d\u043e": 3906,
  "\u2581offences": 3907,
  "\u2581\u0441\u043e\u043e\u0442\u0432\u0435\u0442\u0441\u0442\u0432\u0443\u044e\u0449\u0435\u0439": 3908,
  "\u2581city": 3909,
  "\u2581workshop": 3910,
  "\u2581\u043c\u043e\u043d\u0438\u0442\u043e\u0440\u0438\u043d\u0433\u0430": 3911,
  "\u2581\u0437\u0430\u0432\u0438\u0441\u0438\u043c\u043e\u0441\u0442\u0438": 3912,
  "\u2581\u0421\u0443\u0434": 3913,
  "\u2581respective": 3914,
  "\u2581seven": 3915,
  "\u2581Further": 3916,
  "\u2581\u043f\u0440\u0435\u0434\u0443\u0441\u043c\u0430\u0442\u0440\u0438\u0432\u0430\u044e\u0449": 3917,
  "\u2581conferences": 3918,
  "\u2581forest": 3919,
  "\u0447\u0443": 3920,
  "1.": 3921,
  "\u2581likely": 3922,
  "\u2581statistical": 3923,
  "\u2581professional": 3924,
  "\u2581\u0420\u0430\u0441": 3925,
  "\u2581\u041d\u0410": 3926,
  "\u2581determined": 3927,
  "\u042b": 3928,
  "\u2581\u0440\u0435\u0444\u043e\u0440\u043c\u044b": 3929,
  "\u2581stressed": 3930,
  "\u2581\u043e\u043f\u0440\u0435\u0434\u0435\u043b\u0435\u043d\u0438\u0435": 3931,
  "\u2581\u043e\u0447\u0435\u0440\u0435\u0434\u044c": 3932,
  "\u2581\u0441\u0443\u0434\u0435\u0431\u043d\u043e\u0439": 3933,
  "ia": 3934,
  "\u2581\u0438\u043d\u0442\u0435\u0440\u0435\u0441\u043e\u0432": 3935,
  "\u2581\u043f\u0440\u0430\u0432\u0438\u0442\u0435\u043b\u044c\u0441\u0442\u0432\u0435\u043d\u043d": 3936,
  "\u2581\u043f\u043e\u043d\u044f\u043b": 3937,
  "\u2581\u0434\u043e\u0440\u043e\u0433": 3938,
  "\u2581documentation": 3939,
  "\u2581\u043e\u043f\u0440\u0435\u0434\u0435\u043b\u0438\u0442\u044c": 3940,
  "\u2581UNHCR": 3941,
  "\u2581\u0440\u0435\u0436\u0438\u043c\u0430": 3942,
  "\u2581Community": 3943,
  "\u2581\u043f\u0440\u0438\u043d\u044f\u0442": 3944,
  "\u2581placed": 3945,
  "$": 3946,
  "\u2581\u043e\u043f\u044b\u0442\u0430": 3947,
  "\u0443\u043b": 3948,
  "\u2581offer": 3949,
  "\u043d\u0438\u0438": 3950,
  "ness": 3951,
  "\u0431\u043e\u0440": 3952,
  "\u2581\u043f\u0440\u0438\u043d\u044f\u0442\u044b": 3953,
  "\u2581Fifth": 3954,
  "\u2581entire": 3955,
  "\u2581Labour": 3956,
  "\u2581\u043f\u0440\u043e\u0432\u0435\u0440\u043a\u0438": 3957,
  "\u2581sense": 3958,
  "\u2581hands": 3959,
  "\u0446\u0438\u044f": 3960,
  "\u2581\u043f\u043e\u043b\u043d\u043e\u043c": 3961,
  "\u2581\u0440\u0430\u0441\u043f\u0440\u043e\u0441\u0442\u0440\u0430\u043d\u0435\u043d\u0438\u0435": 3962,
  "\u2581maximum": 3963,
  "\u2581\u043f\u0440\u0438\u0432\u0435\u0441\u0442\u0438": 3964,
  "\u2581Policy": 3965,
  "\u2581\u0437\u0430\u044f\u0432\u0438\u043b": 3966,
  "\u2581From": 3967,
  "\u0441\u0442\u0430": 3968,
  "\u2581\u0422\u0430\u043c": 3969,
  "\u2581exploitation": 3970,
  "\u044d\u0439": 3971,
  "\u0438\u043d\u0430": 3972,
  "\u2581\u0430\u043a\u0442\u0438\u0432\u043d\u043e": 3973,
  "\u2581planned": 3974,
  "\u2581multi": 3975,
  "\u2581\u0447\u0435\u0441\u0442\u044c": 3976,
  "\u2581\u0442\u0440\u0435\u0431\u0443\u0435\u0442\u0441\u044f": 3977,
  "\u2581\u0441\u0443\u0434\u0435\u0439": 3978,
  "\u2581types": 3979,
  "\u2581published": 3980,
  "\u2581\u0421\u0443\u0434\u0430": 3981,
  "\u2581collection": 3982,
  "\u2581\u0440\u0430\u043d\u044c\u0448\u0435": 3983,
  "\u2581indeed": 3984,
  "\u2581thinking": 3985,
  "\u0441\u043a\u043e\u043c": 3986,
  "\u2581\u041f\u043e\u0441\u043a\u043e\u043b\u044c\u043a\u0443": 3987,
  "\u2581month": 3988,
  "\u2581Introduction": 3989,
  "\u2581\u043f\u043e\u0434\u0434\u0435\u0440\u0436\u043a\u0430": 3990,
  "\u2581\u0414\u0435\u043f\u0430\u0440\u0442\u0430\u043c\u0435\u043d\u0442": 3991,
  "\u2581industry": 3992,
  "\u2581\u041a\u043e\u043c\u0438\u0441\u0441\u0438\u0435\u0439": 3993,
  "\u2581majority": 3994,
  "\u2581\u0438\u0441\u043a\u043b\u044e\u0447\u0435\u043d\u0438\u0435\u043c": 3995,
  "\u2581\u0437\u043d\u0430\u043d\u0438\u0439": 3996,
  "\u2581temporary": 3997,
  "\u2581speak": 3998,
  "\u0440\u043e": 3999,
  "\u2581\u0447\u0430\u0441\u0442\u044c\u044e": 4000,
  "\u043c\u0435\u0448": 4001,
  "\u2581\u0432\u0430\u0436\u043d\u0443\u044e": 4002,
  "\u2581\u0432\u0435\u0441\u0442\u0438": 4003,
  "\u2581\u043c\u043e\u0438": 4004,
  "\u2581\u043d\u0430\u043f\u0440\u0430\u0432\u043b\u0435\u043d\u0438\u0438": 4005,
  "\u2581\u043f\u043e\u043b\u044c\u0437\u0443": 4006,
  "\u0430\u0446\u0438\u0438": 4007,
  "ent": 4008,
  "\u2581l": 4009,
  "\u0435\u0440\u043d": 4010,
  "\u2581\u043b\u044e\u0431\u043e\u0433\u043e": 4011,
  "\u0438\u043b\u0438\u0441\u044c": 4012,
  "\u2581\u0420\u0430": 4013,
  "\u2581\u041f\u043e\u0436\u0430\u043b\u0443\u0439\u0441\u0442\u0430": 4014,
  "\u043d\u0438\u043a\u043e\u0432": 4015,
  "\u0432\u0435\u043d": 4016,
  "\u2581disaster": 4017,
  "\u2581\u043f\u043e\u043d\u0438\u043c\u0430\u044e": 4018,
  "\u2581\u043c\u043e": 4019,
  "\u2581\u041a\u043e\u043d\u0433\u043e": 4020,
  "\u2581\u043d\u0435\u0441\u043a\u043e\u043b\u044c\u043a\u0438\u0445": 4021,
  "\u2581distribution": 4022,
  "\u2581baby": 4023,
  "\u2581Commissioner": 4024,
  "-3": 4025,
  "\u2581amended": 4026,
  "\u2581\u043f\u0440\u0430\u0432\u0438\u0442\u0435\u043b\u044c\u0441\u0442\u0432\u0443": 4027,
  "\u2581\u0440\u0435\u0433\u0443\u043b\u0438\u0440\u043e\u0432\u0430\u043d\u0438\u044f": 4028,
  "\u0430\u0434": 4029,
  "\u2581\u0441\u043e\u0442\u0440\u0443\u0434\u043d\u0438\u043a\u0438": 4030,
  "\u2581\u0423\u0412\u041a\u0411": 4031,
  "\u043a\u043b\u044e\u0447": 4032,
  "\u0434\u0435\u043b\u0430": 4033,
  "\u0415\u0421": 4034,
  "\u2581\u0445\u043e\u0437\u044f\u0439\u0441\u0442\u0432\u0430": 4035,
  "\u2581\u043f\u0440\u0438\u043d\u044f\u043b\u0438": 4036,
  "\u2581\u0441\u043a\u0430\u0437\u0430\u043b\u0438": 4037,
  "\u2581\u043f\u0440\u0435\u0434\u043f\u0440\u0438\u044f\u0442\u0438\u0439": 4038,
  "ak": 4039,
  "\u2581border": 4040,
  "\u2581\u043a\u043b\u0430\u0441\u0441\u0430": 4041,
  "\u2581\u043f\u0440\u043e\u0441\u0438\u043b\u0430": 4042,
  "\u2581\u043f\u0440\u0438\u0447\u0435\u043c": 4043,
  "\u2581Third": 4044,
  "\u2581\u0421\u0435\u0433\u043e\u0434\u043d\u044f": 4045,
  "\u2581\u0441\u0442\u0430\u0431\u0438\u043b\u044c\u043d\u043e\u0441\u0442\u0438": 4046,
  "\u2581\u0432\u0438\u0434": 4047,
  "2,": 4048,
  "\u2581\u0443\u0441": 4049,
  "\u2581WP": 4050,
  "\u2581\u0415\u0441\u0442\u044c": 4051,
  "\u2581\u043d\u0430\u0440\u043e\u0434": 4052,
  "\u0440\u043e\u0432": 4053,
  "\u2581elected": 4054,
  "\u2581actual": 4055,
  "\u2581\u043e\u0441\u0443\u0449\u0435\u0441\u0442\u0432\u043b\u044f\u0435\u0442\u0441\u044f": 4056,
  "\u2581\u0432\u0438\u0434\u0443": 4057,
  "\u0433\u0443": 4058,
  "\u2581gone": 4059,
  "\u2581focused": 4060,
  "\u2581\u0418\u0440\u0430\u043a\u0430": 4061,
  "\u2581\u043f\u0440\u0435\u0434\u043e\u0441\u0442\u0430\u0432\u043b\u0435\u043d\u0438\u0435": 4062,
  "\u2581\u0441\u043e\u0433\u043b\u0430\u0441\u0438\u044f": 4063,
  "\u2581\u043f\u043e\u0436\u0430\u043b\u0443\u0439\u0441\u0442\u0430": 4064,
  "\u2581\u044f\u0434\u0435\u0440\u043d\u044b\u0445": 4065,
  "\u2581net": 4066,
  "19": 4067,
  "\u2581improvement": 4068,
  "\u0434\u0438\u0442": 4069,
  "\u2581\u0443\u0441\u043b\u043e\u0432\u0438\u0438": 4070,
  "-2": 4071,
  "\u2581welcomes": 4072,
  "\u2581NGOs": 4073,
  "\u2581difficulties": 4074,
  "\u2581generally": 4075,
  "\u2581duty": 4076,
  "\u2581\u0421\u043c": 4077,
  "\u2581\u043f\u043e\u0432\u0435\u0441\u0442\u043a\u0443": 4078,
  "\u2581values": 4079,
  "z": 4080,
  "\u2581\u0443\u0436": 4081,
  "\u2581\u0441\u044b\u043d": 4082,
  "\u2581\u043e\u0431\u044f\u0437\u0430\u043d\u043d\u043e\u0441\u0442\u0435\u0439": 4083,
  "\u2581companies": 4084,
  "\u041e\u0412": 4085,
  "op": 4086,
  "\u2581sentence": 4087,
  "age": 4088,
  "\u2581\u0416\u0435\u043d\u0435\u0432\u0435": 4089,
  "\u2581allowed": 4090,
  "\u2581specified": 4091,
  "\u2581operating": 4092,
  "\u043e\u0432\u0430\u043b": 4093,
  "\u2581\u0440\u0430\u0439\u043e\u043d\u043e\u0432": 4094,
  "ca": 4095,
  "\u2581interested": 4096,
  "\u2581reduced": 4097,
  "J": 4098,
  "\u2581\u043f\u0440\u0435\u0434\u0432\u0430\u0440\u0438\u0442\u0435\u043b\u044c\u043d": 4099,
  "\u2581\u0442\u0432\u043e\u0438": 4100,
  "\u2581\u041e\u0431": 4101,
  "\u2581\u043c\u0430\u043d\u0434\u0430\u0442": 4102,
  "\u0434\u0435\u043d": 4103,
  "\u2581\u0441\u0440\u043e\u043a\u0438": 4104,
  "\u2581System": 4105,
  "\u2581\u043e\u0441\u043d\u043e\u0432\u043d\u043e\u0439": 4106,
  "\u0447\u0435\u043d": 4107,
  "\u2581\u043d\u0430\u0443\u0447\u043d\u043e": 4108,
  "\u2581\u0441\u0431\u043e\u0440\u0430": 4109,
  "\u2581Congo": 4110,
  "\u2581\u0442\u0430\u043a\u0438\u043c\u0438": 4111,
  "3.": 4112,
  "\u0420": 4113,
  "\u2581freedoms": 4114,
  "\u2581Rules": 4115,
  "\u2581\u043f\u0440\u0435\u0434\u0441\u0442\u0430\u0432\u0438\u043b": 4116,
  "\u2581tools": 4117,
  "\u2581behind": 4118,
  "\u2581\u0434\u0440\u0443\u0433\u0430": 4119,
  "\u2581myself": 4120,
  "\u2581audit": 4121,
  "\u2581fourth": 4122,
  "\u2581\u0440\u0430\u0437\u0432\u0438\u0442\u0438\u0438": 4123,
  "\u2581\u0440\u0435\u0441\u0443\u0440\u0441\u0430\u043c\u0438": 4124,
  "\u2581\u041b\u0435": 4125,
  "\u2581sanctions": 4126,
  "\u0430\u0440": 4127,
  "\u2581wants": 4128,
  "\u2581\u043b\u044e\u0431\u044b\u0435": 4129,
  "\u2581\u043a\u0430\u0436\u0435\u0442\u0441\u044f": 4130,
  "\u2581\u043a\u043e\u043c\u043f\u0435\u043d\u0441\u0430\u0446\u0438\u0438": 4131,
  "\u2581\u0420\u0435\u0441\u043f\u0443\u0431\u043b\u0438\u043a\u0435": 4132,
  "\u043d\u0438\u043a\u0430": 4133,
  "\u2581\u044f\u0441\u043d\u043e": 4134,
  "\u2581\u0432\u044b\u0441\u043e\u043a\u043e": 4135,
  "\u0441\u0442\u0430\u0442\u044c\u044f": 4136,
  "\u2581Training": 4137,
  "\u2581\u0432\u0438\u0434\u044b": 4138,
  "\u2581counter": 4139,
  "\u2581growing": 4140,
  "lo": 4141,
  "\u2581brother": 4142,
  "\u2581negative": 4143,
  "\u2581\u0432\u044b\u043f\u043e\u043b\u043d\u0435\u043d\u0438\u0435": 4144,
  "\u2581victim": 4145,
  "\u2581\u043e\u0433\u0440\u0430\u043d\u0438\u0447\u0435\u043d\u0438\u044f": 4146,
  "\u2581\u0441\u043b\u0435\u0434\u0443\u044e\u0449\u0438\u0439": 4147,
  "\u2581\u0438\u0437\u043c\u0435\u043d\u0438\u0442\u044c": 4148,
  "\u2581\u043a\u0430\u0441\u0430\u044e\u0449\u0438\u043c\u0441\u044f": 4149,
  "\u0447\u043b\u0435\u043d\u0430\u043c": 4150,
  "\u2581compared": 4151,
  "\u2581offence": 4152,
  "\u2581\u043d\u0435\u043e\u0431\u0445\u043e\u0434\u0438\u043c\u044b\u0445": 4153,
  "\u2581dealing": 4154,
  "\u2581\u0437\u0430\u043a\u043e\u043d\u043e\u043c": 4155,
  "\u0435\u043d\u0442": 4156,
  "\u2581\u0444\u0430\u043a\u0442\u043e\u0440\u043e\u0432": 4157,
  "\u2581\u0440\u044f\u0434\u043e\u043c": 4158,
  "\u2581\u0440\u0435\u0447\u044c": 4159,
  "\u2581estimates": 4160,
  "\u2581\u043f\u043e\u0433\u043e\u0432\u043e\u0440\u0438\u0442\u044c": 4161,
  "\u2581Chief": 4162,
  "third": 4163,
  "\u2581\u0432\u043a\u043b\u044e\u0447\u0435\u043d\u0438\u044f": 4164,
  "\u2581\u0431\u0435\u0441": 4165,
  "\u0442\u0443\u0440": 4166,
  "\u2581Task": 4167,
  "\u2581inside": 4168,
  "\u2581\u0441\u0442\u0430\u0442\u0443\u0441": 4169,
  "\u2581\u0414\u0435\u043f\u0430\u0440\u0442\u0430\u043c\u0435\u043d\u0442\u0430": 4170,
  "\u2581Korea": 4171,
  "\u0430\u043b\u0430": 4172,
  "\u2581\u0441\u0442\u0430\u0442\u0435\u0439": 4173,
  "\u2581\u043d\u043e\u0440\u043c\u044b": 4174,
  "\u0410\u042f": 4175,
  "\u2581competent": 4176,
  "\u2581\u0433\u043e\u0442\u043e\u0432": 4177,
  "\u2581Wait": 4178,
  "\u2581assessments": 4179,
  "66": 4180,
  "te": 4181,
  "\u0434\u0430\u0440": 4182,
  "\u2581fuel": 4183,
  "\u2581husband": 4184,
  "\u2581\u0432\u043e\u043e\u0440\u0443\u0436\u0435\u043d\u0438\u0439": 4185,
  "\u2581\u0438\u0433\u0440\u0430\u0442\u044c": 4186,
  "\u2581Sub": 4187,
  "for": 4188,
  "\u2581\u0438\u043c\u0435\u044e\u0449\u0438\u0445\u0441\u044f": 4189,
  "\u2581separate": 4190,
  "\u2581\u0427\u0435": 4191,
  "\u2581\u0443\u0447\u0438\u0442\u044b\u0432\u0430\u0442\u044c": 4192,
  "\u2581\u0441\u0443\u043c\u043c\u044b": 4193,
  "\u2581\u0444": 4194,
  "\u2581Association": 4195,
  "\u2581\u043b\u044e\u0431\u043b\u044e": 4196,
  "\u0438\u0442\u0435\u043b\u044c": 4197,
  "\u0444\u0443\u043d\u043a\u0446\u0438\u043e\u043d\u0438\u0440\u043e\u0432\u0430\u043d\u0438\u044f": 4198,
  "\u2581absence": 4199,
  "\u2581Jesus": 4200,
  "\u2581accepted": 4201,
  "\u2581\u0432\u043a\u043b\u044e\u0447\u0430\u0442\u044c": 4202,
  "\u2581\u0441\u043b\u0435\u0434\u0443\u044e\u0449\u0435\u0435": 4203,
  "\u2581marriage": 4204,
  "\u2581\u043f\u0440\u0430\u0432\u043e\u0432\u044b\u0445": 4205,
  "\u2581transparency": 4206,
  "\u2581fun": 4207,
  "\u2581happy": 4208,
  "\u0432\u0430\u043b\u0438": 4209,
  "\u2581\u043c\u0435\u0440\u0430\u0445": 4210,
  "\u2581inform": 4211,
  "\u2581origin": 4212,
  "\u2581actors": 4213,
  "\u2581\u0436\u0435\u043d\u0449\u0438\u043d\u0430\u043c": 4214,
  "\u0441\u043a\u0438": 4215,
  "\u2581\u0444\u0438\u043d\u0430\u043d\u0441\u0438\u0440\u043e\u0432\u0430\u043d\u0438\u0435": 4216,
  "\u2581target": 4217,
  "\u2581\u043f\u0440\u0430\u0432\u043e\u043c": 4218,
  "\u2581\u043f\u043e\u043b\u0438\u0442\u0438\u043a\u0435": 4219,
  "\u2581\u0411\u043e\u0433": 4220,
  "\u2581\u0441\u043e\u043e\u0442\u0432\u0435\u0442\u0441\u0442\u0432\u0435\u043d\u043d\u043e": 4221,
  "\u2581\u0441\u0443\u043c\u043c\u0430": 4222,
  "\u2581\u041b\u0438": 4223,
  "\u2581workshops": 4224,
  "\u2581TO": 4225,
  "\u2581\u0440\u0443\u043a\u043e\u0432\u043e\u0434\u044f\u0449\u0438\u0435": 4226,
  "\u2581unless": 4227,
  "\u2581\u0430\u0441\u043f\u0435\u043a\u0442\u043e\u0432": 4228,
  "ri": 4229,
  "\u2581\u0445\u043e\u0442\u0435\u043b\u0438": 4230,
  "\u2581\u0414\u0443\u043c\u0430\u044e": 4231,
  "\u2581\u0441\u043e\u043e\u0431\u0449\u0435\u043d\u0438\u0439": 4232,
  "\u2581\u043f\u043e\u0441\u0442": 4233,
  "\u2581independence": 4234,
  "\u044e\u0449\u0438\u0435\u0441\u044f": 4235,
  "\u2581guess": 4236,
  "\u2581\u0441\u043c\u043e\u0436\u0435\u0442": 4237,
  "\u2581University": 4238,
  "\u2581\u0415\u0421": 4239,
  "\u2581broad": 4240,
  "\u2581\u043f\u043e\u043b\u043e\u0436\u0435\u043d\u0438\u044e": 4241,
  "\u2581\u043e\u0431\u0449\u0435\u0441\u0442\u0432\u0435\u043d\u043d\u043e\u0439": 4242,
  "out": 4243,
  "\u2581unit": 4244,
  "\u2581confidence": 4245,
  "\u2581\u043f\u0440\u043e\u0441\u044c\u0431\u043e\u0439": 4246,
  "\u0442\u0440\u043e": 4247,
  "\u2581\u0438\u0441\u043f\u043e\u043b\u044c\u0437\u043e\u0432\u0430\u043d\u0438\u044e": 4248,
  "\u043b\u044b\u0448": 4249,
  "\u2581\u043f\u0440\u0435\u0434\u0441\u0442\u0430\u0432\u043b\u044f\u044e\u0442": 4250,
  "\u2581wide": 4251,
  "\u0432\u0443": 4252,
  "\u2581\u0437\u0435\u043c\u043b\u0435": 4253,
  "\u2581\u0441\u043e\u0442\u0440\u0443\u0434\u043d\u0438\u043a\u0430": 4254,
  "\u2581housing": 4255,
  "\u0440\u0430\u0441": 4256,
  "\u2581\u043f\u043e\u0434\u0434\u0435\u0440\u0436\u0438\u0432\u0430\u0442\u044c": 4257,
  "\u2581\u0437\u0430\u0441\u0435\u0434\u0430\u043d\u0438\u044f\u0445": 4258,
  "\u2581\u0430\u0434\u043c\u0438\u043d\u0438\u0441\u0442\u0440\u0430\u0442\u0438\u0432\u043d": 4259,
  "ro": 4260,
  "ure": 4261,
  "\u2581Financial": 4262,
  "\u2581Police": 4263,
  "\u2581\u0441\u043e\u0432\u0441\u0435\u043c": 4264,
  "\u2581languages": 4265,
  "\u2581efficient": 4266,
  "\u2581\u044d\u0444\u0444\u0435\u043a\u0442\u0438\u0432\u043d\u043e\u0439": 4267,
  "\u0441\u0442\u0432\u0435\u043d\u043d\u044b\u0435": 4268,
  "\u2581\u043b\u0438\u0446\u0430\u043c\u0438": 4269,
  "\u2581\u0443\u0434\u0430\u043b\u043e\u0441\u044c": 4270,
  "\u2581\u0437\u0432\u043e\u043d": 4271,
  "\u2581weeks": 4272,
  "\u2581\u0415\u0449\u0435": 4273,
  ".11": 4274,
  "\u2581\u043d\u0430\u0445\u043e\u0434\u044f\u0442\u0441\u044f": 4275,
  "\u2581\u043e\u0431\u044f\u0437\u0430\u0442\u0435\u043b\u044c\u0441\u0442\u0432\u043e": 4276,
  "\u2581St": 4277,
  "\u2581amendment": 4278,
  "\u2581\u043d\u0430\u0440\u0443\u0448\u0435\u043d\u0438\u0435": 4279,
  "\u2581concept": 4280,
  "\u2581payment": 4281,
  "\u2581\u043f\u0435\u0440\u0441\u043e\u043d\u0430\u043b": 4282,
  "\u2581leadership": 4283,
  "\u2581conventions": 4284,
  "\u2581students": 4285,
  "\u2581\u0440\u0430\u0437\u0440\u0430\u0431\u043e\u0442\u043a\u0443": 4286,
  "\u2581Weapons": 4287,
  "\u2581Energy": 4288,
  "\u0443\u0441": 4289,
  "\u2581\u043b\u043e": 4290,
  "\u2581cash": 4291,
  "\u2581\u0441\u0430\u043c\u043e\u0435": 4292,
  "\u2581Letter": 4293,
  "\u0447\u0435\u0440": 4294,
  "\u2581Many": 4295,
  "\u2581\u0437\u0430\u043d\u0438\u043c\u0430\u0442\u044c\u0441\u044f": 4296,
  "\u2581\u043f\u043e\u043b\u0438\u0442\u0438\u043a\u0430": 4297,
  "\u2581options": 4298,
  "ary": 4299,
  "\u0431\u0443\u0434": 4300,
  "\u2581probably": 4301,
  "\u2581\u0440\u0430\u0431\u043e\u0442\u0430\u0435\u0442": 4302,
  "\u2581\u041b\u043e": 4303,
  "\u2581Vice": 4304,
  "\u2581\u0411\u043e": 4305,
  "\u2581Dr": 4306,
  "\u2581\u0440\u0430\u0441\u0448\u0438\u0440\u0435\u043d\u0438\u0435": 4307,
  "\u2581\u043f\u0440\u043e\u0432\u0435\u043b": 4308,
  "\u2581\u0442\u0440\u0435\u0431\u043e\u0432\u0430\u043d\u0438\u044f\u043c": 4309,
  "\u2581\u0432\u044b\u043f\u043e\u043b\u043d\u0435\u043d\u0438\u044e": 4310,
  "\u2581oil": 4311,
  "\u2581skills": 4312,
  "\u2581centre": 4313,
  "\u2581markets": 4314,
  "\u0443\u0448": 4315,
  "17": 4316,
  "\u2581respond": 4317,
  "\u2581\u0432\u043e\u043b\u043d": 4318,
  "\u2581etc": 4319,
  "\u2581\u0440\u0430\u0439\u043e\u043d\u0430\u0445": 4320,
  "\u2581\u0441\u043e\u0442\u0440\u0443\u0434\u043d\u0438\u0447\u0430\u0442\u044c": 4321,
  "\u2581reviewed": 4322,
  "\u2581\u0432\u043d\u0435": 4323,
  "\u2581\u0440\u0435\u0433\u0438\u0441\u0442\u0440\u0430\u0446\u0438\u0438": 4324,
  "ny": 4325,
  "\u2581\u0441\u0443\u0434\u043e\u0432": 4326,
  "\u043a\u0440\u044b": 4327,
  "\u2581\u0443\u0442\u0432\u0435\u0440\u0436\u0434\u0435\u043d\u0438\u0435": 4328,
  "ies": 4329,
  "\u043f\u0440\u0435": 4330,
  "\u2581\u043e\u0441\u043e\u0431\u0435\u043d\u043d\u043e\u0441\u0442\u0438": 4331,
  "\u2581\u0418\u0437\u0440\u0430\u0438\u043b\u044c": 4332,
  "9": 4333,
  "\u2581\u0432\u044b\u0445\u043e\u0434\u0430": 4334,
  "\u2581\u043f\u043e\u0434\u0442\u0432\u0435\u0440\u0436\u0434\u0430\u0435\u0442": 4335,
  "ian": 4336,
  "\u2581die": 4337,
  "\u2581\u043c\u0435\u043d\u044c\u0448\u0435": 4338,
  "\u043b\u044e\u0431": 4339,
  "\u2581\u043e\u0440\u0433\u0430\u043d\u0438\u0437\u0430\u0446\u0438\u0435\u0439": 4340,
  "\u2581\u0441\u043e\u043e\u0431\u0449\u0435\u043d\u0438\u0435": 4341,
  "\u2581accountability": 4342,
  "\u2581\u043e\u0431\u0441\u0443\u0436\u0434\u0435\u043d\u0438\u0435": 4343,
  "mm": 4344,
  "\u2581boy": 4345,
  "\u2581\u043f\u043e\u0441\u0442\u0430\u043d\u043e\u0432\u0438\u043b": 4346,
  "\u2581\u0441\u0442\u0430\u043d\u0435\u0442": 4347,
  "\u0438\u043b\u044c": 4348,
  "\u2581traditional": 4349,
  "\u2581\u0435\u0436\u0435\u0433\u043e\u0434\u043d\u043e": 4350,
  "\u2581Islamic": 4351,
  "\u2581partnerships": 4352,
  "\u2581\u043d\u0435\u0437\u0430\u0432\u0438\u0441\u0438\u043c\u043e": 4353,
  "\u2581\u043f\u0440\u0435\u0434\u043b\u0430\u0433\u0430\u0435\u043c": 4354,
  "\u2581central": 4355,
  "\u2581\u0448\u0435\u0441\u0442\u043e\u0439": 4356,
  "\u2581\u0431\u0430\u0437\u044b": 4357,
  "\u2581\u0441\u0435\u0440\u044c\u0435\u0437\u043d\u044b\u0435": 4358,
  "\u2581\u043c\u0430": 4359,
  "/63/": 4360,
  "\u2581\u0446\u0435\u043d\u0442\u0440\u043e\u0432": 4361,
  "\u2581recorded": 4362,
  "\u2581\u043e\u043f\u044b\u0442\u043e\u043c": 4363,
  "\u2581\u0433\u043e\u0432\u043e\u0440\u044f\u0442": 4364,
  "\u2581timely": 4365,
  "\u2581destruction": 4366,
  "\u2581TRANS": 4367,
  "\u2581\u0440\u0430\u0437\u0434\u0435\u043b\u0435": 4368,
  "\u044f\u0441": 4369,
  "\u2581round": 4370,
  "\u2581\u0442\u0432\u043e\u044f": 4371,
  "\u2581\u0441\u0432\u0435\u0442\u0435": 4372,
  "25": 4373,
  "\u2581near": 4374,
  "\u2581fear": 4375,
  "ine": 4376,
  "\u0436\u0435\u043d": 4377,
  ".1)": 4378,
  "\u2581comes": 4379,
  "\u2581\u0448\u0435\u0441\u0442\u044c": 4380,
  "35": 4381,
  "\u2581door": 4382,
  "\u2581\u0441\u0432\u043e\u0435\u043c\u0443": 4383,
  "\u2581\u043f\u043e\u043b\u0430": 4384,
  "\u2581\u043c\u0435\u0442\u043e\u0434\u044b": 4385,
  "\u2581categories": 4386,
  "45": 4387,
  "\u2581\u0411\u043e\u0433\u0430": 4388,
  "\u2581recovery": 4389,
  "\u0432\u0435\u0449": 4390,
  "\u0448\u0430\u044f": 4391,
  "\u2581\u0441\u0432\u043e\u0431\u043e\u0434": 4392,
  "\u2581West": 4393,
  "\u2581\u0420\u0430\u0437": 4394,
  "\u2581blood": 4395,
  "\u2581extended": 4396,
  "\u2581export": 4397,
  "\u2581\u043e\u0441\u0443\u0449\u0435\u0441\u0442\u0432\u043b\u0435\u043d\u0438\u0435\u043c": 4398,
  "\u2581concrete": 4399,
  "\u2581ability": 4400,
  "\u2581FOR": 4401,
  "\u2581closely": 4402,
  "\u2581\u0441\u0432\u043e\u0431\u043e\u0434\u0443": 4403,
  "\u2581\u043a\u0440\u0430\u0439\u043d\u0435": 4404,
  "\u0438\u043d\u0435": 4405,
  "\u2581\u041a\u0430": 4406,
  "\u2581\u0420\u0430\u0437\u0432\u0435": 4407,
  "second": 4408,
  "\u2581\u0432\u0435\u0431": 4409,
  "\u043a\u0430\u043c\u0438": 4410,
  "\u2581pretty": 4411,
  "\u2581giving": 4412,
  "\u2581function": 4413,
  "\u2581consumption": 4414,
  "\u2581\u0441\u0440\u0435\u0434\u0441\u0442\u0432\u0430\u043c\u0438": 4415,
  "\u2581Administration": 4416,
  "\u2581happen": 4417,
  "\u2581\u043f\u043b\u043e\u0445\u043e": 4418,
  "\u2581\u043d\u0430\u0448\u0435\u0433\u043e": 4419,
  "\u2581religion": 4420,
  "\u043b\u0438\u043d": 4421,
  "\u2581appointed": 4422,
  "son": 4423,
  "\u2581\u044d\u0444\u0444\u0435\u043a\u0442\u0438\u0432\u043d\u043e\u0441\u0442\u044c": 4424,
  "U": 4425,
  "\u2581\u0443\u0433\u0440\u043e\u0437\u0443": 4426,
  "\u2581\u0431\u044b\u0441\u0442\u0440\u043e": 4427,
  "\u2581donors": 4428,
  "\u2581\u0432\u043d\u0435\u0441\u0442\u0438": 4429,
  "ninth": 4430,
  "\u2581\u0437\u0430\u0432\u0442\u0440\u0430": 4431,
  "\u2581\u043e\u0431\u0435\u0441\u043f\u0435\u0447\u0438\u0432\u0430\u0435\u0442": 4432,
  "\u2581\u0434\u043e\u0432\u0435\u0440\u0438\u044f": 4433,
  "\u2581Operations": 4434,
  "\u0430\u0439\u0442\u0435": 4435,
  "\u0442\u043e\u043d": 4436,
  "\u2581\u043f\u0440\u043e\u0438\u0437\u043e\u0448\u043b\u043e": 4437,
  "\u2581front": 4438,
  "12": 4439,
  "\u2581Strategy": 4440,
  "\u2581\u0441\u043e\u0433\u043b\u0430\u0448\u0435\u043d\u0438\u0435": 4441,
  "\u2581\u0440\u0430\u043c\u043a\u0438": 4442,
  "\u2581committee": 4443,
  "\u2581\u041e\u0442\u0434\u0435\u043b": 4444,
  "\u2581causes": 4445,
  "\u2581\u0441\u0432\u044f\u0437\u044c": 4446,
  "\u2581\u0431\u0443\u0434\u0435\u0448\u044c": 4447,
  "\u2581involvement": 4448,
  "\u2581Authority": 4449,
  "\u0438\u043c\u0441\u044f": 4450,
  "\u2581\u041f\u0440\u0435": 4451,
  "\u2581\u0421\u0442\u043e\u0440\u043e\u043d\u044b": 4452,
  "\u0438\u0440\u043e\u0432\u0430\u043d\u0438\u0435": 4453,
  "\u2581news": 4454,
  "\u2581island": 4455,
  "\u2581urgent": 4456,
  "\u2581\u043f\u043e\u0442\u0435\u043d\u0446\u0438\u0430\u043b": 4457,
  "\u2581La": 4458,
  "\u2581\u0431\u043e\u043b\u044c\u0448\u043e\u0439": 4459,
  "\u0442\u0438\u0432": 4460,
  "\u2581\u0412\u043e\u0437\u043c\u043e\u0436\u043d\u043e": 4461,
  "1,": 4462,
  "\u2581\u043f\u0440\u0438\u043d\u044f\u0442\u0438\u0438": 4463,
  "\u258169": 4464,
  "\u2581\u0443\u043b\u0443\u0447\u0448\u0435\u043d\u0438\u044e": 4465,
  "\u0419\u043e\u0440\u043a": 4466,
  "\u2581\u0448\u0435\u0441\u0442\u0438": 4467,
  "\u2581\u043d\u0430\u043b\u0438\u0447\u0438\u0435": 4468,
  "\u2581\u043c\u0438\u0440\u0443": 4469,
  "ard": 4470,
  "\u2581UNFPA": 4471,
  "\u2581insurance": 4472,
  "\u2581\u043f\u0440\u0435\u0434\u0443\u0441\u043c\u043e\u0442\u0440\u0435\u043d\u043e": 4473,
  "\u2581accounts": 4474,
  "\u2581\u0441\u043e\u0431\u0441\u0442\u0432\u0435\u043d\u043d\u043e\u0441\u0442\u0438": 4475,
  "\u0435\u0437": 4476,
  "\u043f\u043e\u043a\u043e": 4477,
  "\u2581spirit": 4478,
  "\u2581\u043b\u044e\u0434\u0441\u043a\u0438\u0445": 4479,
  "\u2581\u0434\u043e\u0441\u0442\u043e\u0438\u043d\u0441\u0442\u0432\u043e": 4480,
  "\u2581\u043e\u0434\u043d\u043e\u043c": 4481,
  "\u2581\u0431\u0440\u0430\u0442": 4482,
  "11": 4483,
  "\u2581cooperate": 4484,
  "anna": 4485,
  "\u0419": 4486,
  "\u2581relief": 4487,
  "\u044e\u0449\u0438\u0439": 4488,
  "\u043e\u0434": 4489,
  "\u2581\u043d\u0430\u0440\u043a\u043e\u0442\u0438\u043a\u043e\u0432": 4490,
  "\u2581haven": 4491,
  "\u2581site": 4492,
  "\u2581grounds": 4493,
  "\u2581tried": 4494,
  "\u0433\u043e\u0442\u043e\u0432": 4495,
  "\u2581registration": 4496,
  "\u2581\u0417\u0434\u0435\u0441\u044c": 4497,
  "\u2581Internet": 4498,
  "\u0446\u0435\u043d": 4499,
  "\u2581determine": 4500,
  "\u2581\u043d\u0430\u0441\u0442\u043e\u044f\u0449\u0435\u0439": 4501,
  "\u2581immediately": 4502,
  "\u2581\u043f\u043e\u0434\u0433\u043e\u0442\u043e\u0432\u0438\u0442\u044c": 4503,
  "\u2581urban": 4504,
  "\u2581holding": 4505,
  "\u043b\u0435\u0440": 4506,
  "\u2581\u0426\u0435\u043b\u044c": 4507,
  "ful": 4508,
  "\u2581\u0434\u043e\u043b\u044f": 4509,
  "\u2581citizens": 4510,
  "\u2581Officer": 4511,
  "\u2581Rule": 4512,
  "\u043a\u0438\u0439": 4513,
  "\u2581\u042e\u041d\u0415\u041f": 4514,
  "\u2581express": 4515,
  "la": 4516,
  "\u044c\u044f": 4517,
  "\u2581\u043c\u0438\u043d\u0438\u0441\u0442\u0435\u0440\u0441\u0442\u0432\u0430": 4518,
  "\u2581\u043f\u0440\u0438\u043d\u0446\u0438\u043f\u0430": 4519,
  "\u2581\u043e\u0441\u043d\u043e\u0432\u0443": 4520,
  "est": 4521,
  "\u2581\u0441\u0440\u043e\u043a\u0430": 4522,
  "\u2581raise": 4523,
  "\u2581\u0442\u0443\u0434\u0430": 4524,
  "\u2581\u0424\u043e\u043d\u0434": 4525,
  "-4": 4526,
  "\u2581election": 4527,
  "\u2581Official": 4528,
  "\u0436\u0434\u0430": 4529,
  "\u2581\u043e\u0440\u0443\u0436\u0438\u0435": 4530,
  "\u2581ones": 4531,
  "\u2581\u0434\u043e\u043a\u043b\u0430\u0434\u0443": 4532,
  "\u2581\u0441\u043e\u044e\u0437": 4533,
  "\u2581leading": 4534,
  "\u2581\u041c\u043e\u044f": 4535,
  "\u2581\u043f\u043e\u0441\u043b\u0435\u0434\u043d\u0438\u0445": 4536,
  "\u2581worked": 4537,
  "\u2581\u0432\u044b\u0432\u043e\u0434\u044b": 4538,
  "69": 4539,
  "\u2581\u0415\u043c\u0443": 4540,
  "\u2581Research": 4541,
  "\u2581\u0433\u043e\u043b\u043e\u0441\u043e\u0432\u0430\u043d\u0438\u044f": 4542,
  "\u2581Two": 4543,
  "\u0441\u043b\u0435\u0434": 4544,
  "\u2581Thus": 4545,
  "\u2581direction": 4546,
  "\u2581complaints": 4547,
  "\u2581Space": 4548,
  "\u2581\u0432\u0430\u0436\u043d\u044b\u0445": 4549,
  "\u2581inclusion": 4550,
  "\u2581\u043f\u043e\u0432\u0435\u0434\u0435\u043d\u0438\u044f": 4551,
  "\u2581\u043d\u0435\u0437\u0430\u0432\u0438\u0441\u0438\u043c\u043e\u0441\u0442\u0438": 4552,
  "\u2581mandates": 4553,
  "\u0430\u043d\u0430": 4554,
  "\u2581\u043c\u0438\u0440\u043d\u043e\u0433\u043e": 4555,
  "\u2581ex": 4556,
  "\u2581requirement": 4557,
  "\u2581capacities": 4558,
  "\u2581Australia": 4559,
  "\u0448\u043d": 4560,
  "\u2581internationally": 4561,
  "\u2581expertise": 4562,
  "SC": 4563,
  "\u2581price": 4564,
  "\u2581\u0447\u0430\u0441\u0442\u043d\u043e\u0433\u043e": 4565,
  "\u2581history": 4566,
  "\u2581\u0441\u0442\u0430\u043b\u0430": 4567,
  "\u2581assess": 4568,
  "\u2581\u042e\u041d\u0424\u041f\u0410": 4569,
  "\u0433\u043e\u0441\u0443\u0434\u0430\u0440\u0441\u0442\u0432\u0435\u043d\u043d\u043e\u0433\u043e": 4570,
  "\u2581\u0432\u0435\u0441\u044c": 4571,
  "29": 4572,
  "\u2581\u0423\u0442\u0432\u0435\u0440\u0436\u0434\u0435\u043d\u0438\u0435": 4573,
  "\u2581\u0441\u0430\u043c\u043e\u0433\u043e": 4574,
  "\u2581\u043f\u043e\u0441\u043b\u0435\u0434\u043d\u0435\u0435": 4575,
  "\u2581\u0443\u0441\u0442\u0430\u043d\u043e\u0432\u043b\u0435\u043d\u0438\u044f": 4576,
  "\u2581\u043c\u0443\u0436": 4577,
  "\u2581\u043f\u0430\u043f": 4578,
  "\u2581medium": 4579,
  "\u2581\u0434\u0430\u043d\u043d\u044b\u043c": 4580,
  "\u2581\u0432\u0435\u0440\u0443": 4581,
  "\u2581\u0441\u0435\u0434\u044c\u043c\u043e\u0439": 4582,
  "\u2581\u043a\u0430\u043a\u043e\u0433\u043e": 4583,
  "\u2581\u043f\u0440\u0438\u043d\u0446\u0438\u043f": 4584,
  "\u2581learned": 4585,
  "\u2581advance": 4586,
  "\u2581\u043f\u0440\u0438\u0437\u044b\u0432": 4587,
  "\u2581\u0447\u0435\u0442\u043a\u043e": 4588,
  "\u2581records": 4589,
  "\u0441\u0442\u0432\u0435": 4590,
  "\u2581\u043f\u0440\u0430\u0432\u0435": 4591,
  "\u2581\u0446\u0435\u043d\u0442\u0440\u0430": 4592,
  "\u2581Chairperson": 4593,
  "\u2581\u0440\u0430\u0437\u043b\u0438\u0447\u043d\u044b\u043c\u0438": 4594,
  "\u2581\u043f\u0440\u0435\u0434\u043e\u0441\u0442\u0430\u0432\u043b\u0435\u043d\u0438\u0438": 4595,
  "weapon": 4596,
  "\u258172": 4597,
  "\u2581phone": 4598,
  "\u2581\u0430\u0434\u0440\u0435\u0441": 4599,
  "\u0443\u043c\u0430": 4600,
  "\u2581base": 4601,
  "time": 4602,
  "\u2581(1)": 4603,
  "\u0449\u0438": 4604,
  "\u0441\u043e\u043e\u0442\u0432\u0435\u0442\u0441\u0442\u0432\u0443\u044e\u0449\u0435\u0433\u043e": 4605,
  "\u2581Iran": 4606,
  "\u2581\u043f\u0440\u0438\u043d\u0438\u043c\u0430\u044f": 4607,
  "\u2581\u0441\u043b\u0435\u0434\u0443\u044e\u0449\u0435\u0439": 4608,
  "\u2581reducing": 4609,
  "\u2581\u041f\u0438\u0441\u044c\u043c\u043e": 4610,
  "\u2581\u043d\u0430\u0440\u043a\u043e\u0442\u0438\u043a\u0430\u043c\u0438": 4611,
  "\u2581risks": 4612,
  "\u2581waste": 4613,
  "\u2581\u0441\u0432\u0435\u0442": 4614,
  "\u2581\u043f\u0440\u043e\u0434\u043e\u043b\u0436\u0438\u0442\u044c": 4615,
  "\u0430\u0446\u0438\u044f": 4616,
  "\u2581\u043a\u043e\u043c\u0438\u0442\u0435\u0442\u043e\u043c": 4617,
  "\u0435\u0442\u0435\u0441\u044c": 4618,
  "\u2581la": 4619,
  "\u2581earlier": 4620,
  "\u2581\u043f\u0440\u0438\u0432\u0435\u0440\u0436\u0435\u043d\u043d\u043e\u0441\u0442\u044c": 4621,
  "\u2581\u0434\u0430\u043d\u043d\u043e\u043c": 4622,
  "\u2581moment": 4623,
  "\u2581\u0441\u043f\u0430\u0441\u0438\u0431\u043e": 4624,
  "\u2581\u043e\u0444\u0438\u0446\u0438\u0430\u043b\u044c\u043d\u044b\u0445": 4625,
  "\u2581paras": 4626,
  "\u2581undertake": 4627,
  "\u2581\u0441\u043e\u0434\u0435\u0440\u0436\u0430\u043d\u0438\u0435": 4628,
  "\u2581\u043f\u043b\u0430\u043d\u044b": 4629,
  "\u2581\u0412\u0430\u0441": 4630,
  "\u2581\u041a\u043e\u043d": 4631,
  "\u2581EU": 4632,
  "\u2581size": 4633,
  "\u0442\u0441\u044f": 4634,
  "\u2581sign": 4635,
  "\u2581content": 4636,
  "\u2581\u0440\u0435\u0433\u0438\u043e\u043d\u0430\u043b\u044c\u043d\u044b\u043c\u0438": 4637,
  "\u2581Corr": 4638,
  "77": 4639,
  "\u0430\u043a": 4640,
  "\u25814,": 4641,
  "\u2581\u043a\u0443\u0434\u0430": 4642,
  "\u2581\u0433\u043b\u043e\u0431\u0430\u043b\u044c\u043d\u043e\u0439": 4643,
  "\u2581attacks": 4644,
  "67": 4645,
  "\u2581finance": 4646,
  "\u258113.": 4647,
  "\u043d\u044c": 4648,
  "\u0442\u0435\u043d": 4649,
  "\u2581\u0440\u0435\u0448\u0435\u043d\u0438\u044e": 4650,
  "\u043a\u043e\u043d": 4651,
  "\u2581honour": 4652,
  "\u2581eyes": 4653,
  "\u2581\u0424\u043e\u043d\u0434\u0430": 4654,
  "\u2581\u043f\u0440\u0435\u0434\u0441\u0442\u0430\u0432\u0438\u0442\u0435\u043b\u044f\u043c\u0438": 4655,
  "\u2581solutions": 4656,
  "\u2581specifically": 4657,
  "\u2581Even": 4658,
  "eighth": 4659,
  "\u2581shared": 4660,
  "37": 4661,
  "\u2581Assistance": 4662,
  "\u2581scale": 4663,
  "\u2581\u041c\u0435\u043d\u044f": 4664,
  "\u2581works": 4665,
  "\u2581charge": 4666,
  "\u2581despite": 4667,
  "\u2581VII": 4668,
  "\u2581\u043a\u0440\u0438\u0437\u0438\u0441\u0430": 4669,
  "\u0431\u0440\u043e": 4670,
  "\u2581eight": 4671,
  "\u2581\u042e\u0436\u043d\u043e\u0439": 4672,
  "\u0438\u0440": 4673,
  "\u2581Most": 4674,
  "seventh": 4675,
  "\u2581recognition": 4676,
  "\u2581survey": 4677,
  "\u2581\u0441\u0442\u0430\u0442\u0443\u0441\u0430": 4678,
  "\u2581\u043f\u0440\u0435\u0434\u043b\u043e\u0436\u0435\u043d\u043e": 4679,
  "\u0426": 4680,
  "\u2581Regulations": 4681,
  "\u2581failure": 4682,
  "\u2581\u0447\u0430\u0441": 4683,
  "\u2581agree": 4684,
  "\u2581\u0431\u0443\u0434\u0443\u0449\u0438\u0445": 4685,
  "\u2581host": 4686,
  "\u2581himself": 4687,
  "\u2581\u0434\u0438\u0430\u043b\u043e\u0433": 4688,
  "\u2581combating": 4689,
  "\u2581died": 4690,
  "\u2581answer": 4691,
  "\u044d\u043c": 4692,
  "\u2581Cuba": 4693,
  "\u2581\u0441\u043b\u0443\u0447\u0430\u0439": 4694,
  "\u2581\u0443\u0442\u0432\u0435\u0440\u0436\u0434\u0430\u0435\u0442": 4695,
  "\u2581Like": 4696,
  "\u2581indicate": 4697,
  "\u2581IN": 4698,
  "\u2581constitute": 4699,
  "\u2581gross": 4700,
  "\u2581\u0432\u044b\u0445\u043e\u0434": 4701,
  "\u043e\u043d\u0430": 4702,
  "\u2581targets": 4703,
  "\u2581encourages": 4704,
  "\u2581\u0443\u0447\u0430\u0441\u0442\u043d\u0438\u043a\u0438": 4705,
  "\u2581\u041f\u0435\u0440\u0435": 4706,
  "\u2581drugs": 4707,
  "\u2581\u043f\u044f\u0442\u043e\u0439": 4708,
  "\u2581\u0440\u0430\u0437\u0431\u0438\u0440\u0430\u0442\u0435\u043b\u044c\u0441\u0442\u0432\u0430": 4709,
  "\u2581granted": 4710,
  "\u2581\u0442\u0440\u0438\u0434\u0446\u0430\u0442\u044c": 4711,
  "\u2581\u043f\u0438\u0441\u044c\u043c\u043e": 4712,
  "\u2581\u041f\u0440\u043e\u0442\u043e\u043a\u043e\u043b\u0430": 4713,
  "\u2581\u0440\u0430\u0437\u0440\u0430\u0431\u043e\u0442\u043a\u0430": 4714,
  "\u2581\u0440\u043e\u0434\u0430": 4715,
  "\u2581highest": 4716,
  "27": 4717,
  "\u2581decide": 4718,
  "\u2581represented": 4719,
  "\u2581\u0414\u0430\u0436\u0435": 4720,
  "\u2581felt": 4721,
  "\u2581\u0432\u0435\u0434\u0435\u043d\u0438\u044f": 4722,
  "63": 4723,
  "\u2581\u043e\u0441\u043d\u043e\u0432\u043d\u044b\u043c": 4724,
  "\u044a\u0435": 4725,
  "\u2581\u0443\u043a\u0430\u0437\u0430\u043d\u043e": 4726,
  "\u2581book": 4727,
  "\u2581\u0411\u0430": 4728,
  "\u2581\u0442\u0430\u0431\u043b\u0438\u0446\u0435": 4729,
  "\u2581forth": 4730,
  "\u2581\u0441\u043e\u0441\u0442\u043e\u044f\u043d\u0438\u044f": 4731,
  "\u2581\u0436\u0438\u0442\u044c": 4732,
  "\u2581\u0437\u043d\u0430\u0447\u0438\u0442\u0435\u043b\u044c\u043d\u043e": 4733,
  "\u043f\u0430\u043b": 4734,
  "\u2581\u043d\u0430\u0446\u0438\u043e\u043d\u0430\u043b\u044c\u043d\u044b\u043c": 4735,
  "\u2581\u043f\u043e\u0432\u044b\u0441\u0438\u0442\u044c": 4736,
  "\u2581\u0443\u0433\u0440\u043e\u0437\u044b": 4737,
  "\u2581\u00bb": 4738,
  "\u2581\u0412\u0432\u0435\u0434\u0435\u043d\u0438\u0435": 4739,
  "16": 4740,
  "\u2581produced": 4741,
  "\u2581traffic": 4742,
  "\u2581whatever": 4743,
  "\u2581stand": 4744,
  "\u0440\u044c": 4745,
  "\u043b\u0438\u0447\u043d\u043e": 4746,
  "\u2581findings": 4747,
  "\u043f\u043b\u043e": 4748,
  "@": 4749,
  "\u2581declaration": 4750,
  "39": 4751,
  "\u2581\u043f\u0435\u0440\u0435\u0432\u043e\u0437\u043e\u043a": 4752,
  "\u2581\u0442\u0440\u0443\u0434\u043d\u043e": 4753,
  "\u2581\u0444\u043e\u0440\u043c\u044b": 4754,
  "\u2581\u0438\u0441\u043f\u043e\u043b\u044c\u0437\u043e\u0432\u0430\u043d\u0438\u0438": 4755,
  "\u2581\u043d": 4756,
  "\u0430\u044e\u0442": 4757,
  "\u2581applications": 4758,
  "\u2581\u0443\u0434\u0435\u043b\u044f\u0442\u044c": 4759,
  "\u2581enhancing": 4760,
  "\u2581entered": 4761,
  "\u2581\u0421\u0442\u0430\u0442\u044c\u044f": 4762,
  "ton": 4763,
  "\u2581publication": 4764,
  "\u2581movement": 4765,
  "\u2581\u0441\u043e\u0441\u0442\u0430\u0432\u0435": 4766,
  "\u2581democratic": 4767,
  "\u2581\u041e\u0434\u0438\u043d": 4768,
  "\u2581\u0437\u0430\u0449\u0438\u0442\u0430": 4769,
  "fourth": 4770,
  "\u2581\u0441\u043a\u043e\u043b\u044c\u043a\u043e": 4771,
  "\u2581\u041c\u043e": 4772,
  "\u2581guarantee": 4773,
  "\u2581became": 4774,
  "\u2581\u043f\u0440\u043e\u0441\u0438\u043b": 4775,
  "\u2581aware": 4776,
  "\u2581Total": 4777,
  "\u2581\u0432\u043e\u0441\u044c\u043c\u043e\u0439": 4778,
  "\u2581\u0433\u043b\u043e\u0431\u0430\u043b\u044c\u043d\u044b\u0445": 4779,
  "\u2581Chamber": 4780,
  "\u2581\u0440\u0430\u0442\u0438\u0444\u0438\u043a\u0430\u0446\u0438\u0438": 4781,
  "\u2581competition": 4782,
  "\u2581\u0438\u0441\u043f\u044b\u0442\u0430\u043d\u0438\u0439": 4783,
  "\u2581\u043f\u0440\u0435\u0434\u0443\u0441\u043c\u043e\u0442\u0440\u0435\u043d\u043d\u044b\u0445": 4784,
  "\u2581\u0440\u0430\u0437\u0432\u0438\u0432\u0430\u044e\u0449\u0438\u043c\u0441\u044f": 4785,
  "\u2581\u043f\u0430\u0440\u0442\u043d\u0435\u0440\u043e\u0432": 4786,
  "\u2581subsidiary": 4787,
  "\u2581\u0440\u0430\u0431\u043e\u0442": 4788,
  "\u2581civilians": 4789,
  "\u2581\u043d\u0430\u0447\u0430\u043b\u0435": 4790,
  "\u2581\u044d\u0444\u0444\u0435\u043a\u0442\u0438\u0432\u043d\u043e": 4791,
  "\u0441\u0442\u0432\u0435\u043d\u043d\u044b\u043c\u0438": 4792,
  "\u2581Environmental": 4793,
  "\u0441\u043b\u0430": 4794,
  "\u2581\u043f\u043e\u043b\u0443": 4795,
  "\u0443\u043b\u044c": 4796,
  "\u2581\u0434\u0435\u0432\u044f\u0442\u043e\u0439": 4797,
  "continued": 4798,
  "\u2581\u043b\u044e\u0434\u044f\u043c": 4799,
  "\u2581easy": 4800,
  "\u2581ratification": 4801,
  "\u2581\u043f\u043e\u043b\u0443\u0447\u0438\u043b\u0438": 4802,
  "\u2581\u0427\u0442\u043e\u0431\u044b": 4803,
  "\u0441\u0443\u0434": 4804,
  "\u258173": 4805,
  "\u2581Asian": 4806,
  "\u2581forced": 4807,
  "\u2581\u043f\u0440\u0438\u0447\u0438\u043d\u0435": 4808,
  "\u2581launched": 4809,
  "fifth": 4810,
  "\u2581\u041a\u0438\u0442\u0430\u044f": 4811,
  "\u2581science": 4812,
  ".15": 4813,
  "/10": 4814,
  "3,": 4815,
  "\u0415\u041d": 4816,
  "\u0441\u043a\u043e\u0435": 4817,
  "CP": 4818,
  "\u2581authorized": 4819,
  "34": 4820,
  "\u2581\u0448\u043a\u043e\u043b\u044b": 4821,
  "\u2581\u043e\u0445\u0440\u0430\u043d\u0435": 4822,
  "\u043f\u0440\u043e\u0434\u043e\u043b\u0436\u0435\u043d\u0438\u0435": 4823,
  "\u2581\u043f\u0440\u043e\u0441\u044c\u0431\u0435": 4824,
  "18": 4825,
  "\u2581\u0440\u0435\u0433\u0438\u043e\u043d\u0430\u043b\u044c\u043d\u043e\u0433\u043e": 4826,
  "\u2581aircraft": 4827,
  "\u0447\u0438\u0442\u0430": 4828,
  "\u2581ON": 4829,
  "\u2581\u043f\u0435\u0440\u0435\u0433\u043e\u0432\u043e\u0440\u044b": 4830,
  "\u2581X": 4831,
  "\u0441\u0442\u0430\u043d\u043e\u0432": 4832,
  "\u2581Sea": 4833,
  "\u2581\u044d\u043a\u043e\u043d\u043e\u043c\u0438\u0447\u0435\u0441\u043a\u0438\u043c": 4834,
  "\u2581hurt": 4835,
  "\u2581\u0441\u0435\u043a\u0440\u0435\u0442\u0430\u0440\u0435\u043c": 4836,
  "\u2581\u0440\u0435\u0448\u0435\u043d\u0438\u0435\u043c": 4837,
  "\u2581\u043e\u0441\u043d\u043e\u0432\u044b": 4838,
  "ES": 4839,
  "\u2581Fifty": 4840,
  "\u2581emphasized": 4841,
  "\u2581\u0420\u043e\u0441\u0441\u0438\u0439\u0441\u043a\u043e\u0439": 4842,
  "\u2581\u0417\u0430\u0447\u0435\u043c": 4843,
  "\u0434\u0430\u0442\u044c": 4844,
  "\u2581Decides": 4845,
  "\u2581thirty": 4846,
  "\u2581\u0437\u0430\u0440\u0435\u0433\u0438\u0441\u0442\u0440\u0438\u0440\u043e\u0432\u0430\u043d": 4847,
  "\u041e\u041e\u041d": 4848,
  "\u2581engaged": 4849,
  "95": 4850,
  "\u2581\u0432\u043f\u0435\u0440\u0435\u0434": 4851,
  "\u2581added": 4852,
  "\u2581\u041c\u043e\u0439": 4853,
  "\u2581\u0443\u0447\u0438\u0442\u044b\u0432\u0430\u044f": 4854,
  "\u2581\u043d\u0430\u043a\u043e\u043d\u0435\u0446": 4855,
  "\u0432\u043e\u0439": 4856,
  "\u0444\u043e\u0440\u043c\u0443\u043b\u0438\u0440\u043e\u0432\u0430\u043d\u043d\u044b\u0445": 4857,
  "09": 4858,
  "\u2581cycle": 4859,
  "\u2581\u0440\u0430\u0441\u0441": 4860,
  "\u2581Status": 4861,
  "\u2581Take": 4862,
  "\u2581\u0430\u0441\u0441\u0438\u0433\u043d\u043e\u0432\u0430\u043d\u0438\u044f": 4863,
  "\u2581\u0432\u0437\u044f\u0442\u044c": 4864,
  "\u2581\u0436\u0430\u043b\u043e\u0431": 4865,
  "\u2581\u044d\u0444\u0444\u0435\u043a\u0442\u0438\u0432\u043d\u044b\u0445": 4866,
  "\u2581\u041d\u0430\u0446\u0438\u043e\u043d\u0430\u043b\u044c\u043d\u043e": 4867,
  "\u2581\u043e\u0442\u0441\u0443\u0442\u0441\u0442\u0432\u0438\u044f": 4868,
  "\u2581\u043c\u0430\u043b\u043e": 4869,
  "\u2581\u043f\u0440\u0438\u0437\u043d\u0430\u0435\u0442": 4870,
  "\u2581\u043a\u0443\u0440\u0441": 4871,
  "\u2581married": 4872,
  "\u2581\u0445\u043e\u0442\u0438\u0442\u0435": 4873,
  "\u2581limit": 4874,
  "\u2581\u043f\u043e\u043f\u0440\u0430\u0432\u043e\u043a": 4875,
  "\u2581Framework": 4876,
  "\u2581\u043e\u0442\u043d\u043e\u0448\u0435\u043d\u0438\u044e": 4877,
  "\u2581\u043f\u0440\u0438\u0445\u043e\u0434\u0438\u0442\u0441\u044f": 4878,
  "\u2581\u043f\u0440\u043e\u0446\u0435\u0441\u0441\u043e\u0432": 4879,
  "\u2581\u043f\u0440\u043e\u0446\u0435\u0441\u0441\u0443": 4880,
  "\u2581\u043e\u0431\u0449\u0438\u0435": 4881,
  "vi": 4882,
  "\u2581immediate": 4883,
  "\u2581Great": 4884,
  "\u2581\u041f\u0440": 4885,
  "resolution": 4886,
  "\u258171": 4887,
  "\u2581faith": 4888,
  "\u2581\u0443\u0447\u0430\u0441\u0442\u0432\u043e\u0432\u0430\u0442\u044c": 4889,
  "\u043b\u0435\u0439": 4890,
  "\u2581Mexico": 4891,
  "ad": 4892,
  "\u2581\u0424\u0435\u0434\u0435\u0440\u0430\u0446\u0438\u0438": 4893,
  "\u2581looks": 4894,
  "\u2581\u0430\u043a\u0442\u044b": 4895,
  "\u2581\u0418\u043b\u0438": 4896,
  "\u2581\u0438\u0441\u043f\u043e\u043b\u044c\u0437\u043e\u0432\u0430\u0442\u044c\u0441\u044f": 4897,
  "\u0440\u044f\u0434": 4898,
  "\u2581\u0433\u0440\u0443\u0437\u043e\u0432": 4899,
  "\u2581\u0441\u0432\u0438\u0434\u0435\u0442\u0435\u043b\u044c\u0441\u0442\u0432\u0443\u0435\u0442": 4900,
  "\u2581places": 4901,
  "sixth": 4902,
  "\u2581tomorrow": 4903,
  "\u2581j": 4904,
  "\u2581perspective": 4905,
  "\u2581actively": 4906,
  "\u2581\u0442\u043e\u0440\u0433\u043e\u0432\u043b\u0435\u0439": 4907,
  "\u2581\u0437\u0430\u043f\u0440\u0435\u0449\u0435\u043d\u0438\u0438": 4908,
  "ma": 4909,
  "\u2581membership": 4910,
  "\u2581El": 4911,
  "\u2581\u043c\u0430\u043b": 4912,
  "\u2581urged": 4913,
  "\u2581Rwanda": 4914,
  "\u2581\u043d\u0430\u0431\u043b\u044e\u0434\u0435\u043d\u0438\u044f": 4915,
  "\u2581\u043f\u043e\u0436\u0435\u043b\u0430\u0435\u0442": 4916,
  "\u2581contains": 4917,
  "\u2581\u044d\u043b\u0435\u043c\u0435\u043d\u0442\u043e\u0432": 4918,
  "\u2581send": 4919,
  "\u043e\u0436\u0435\u0448\u044c": 4920,
  "\u2581floor": 4921,
  "\u0432\u0435\u0434": 4922,
  "\u2581ch": 4923,
  "\u0438\u0448\u044c\u0441\u044f": 4924,
  "\u2581\u0441\u0435\u043a\u0440\u0435\u0442\u0430\u0440\u044e": 4925,
  "\u2581\u043e\u0431\u043e": 4926,
  "\u2581\u0438\u043d\u0444\u043e\u0440\u043c\u0430\u0446\u0438\u043e\u043d\u043d\u044b\u0445": 4927,
  "\u2581\u0442\u0440\u0443\u0434\u043d\u043e\u0441\u0442\u0438": 4928,
  "\u2581\u0414\u0440\u0443\u0433\u0438\u0435": 4929,
  "\u0447\u043b\u0435\u043d\u0430\u043c\u0438": 4930,
  "\u2581Members": 4931,
  "\u0440\u0435\u0434": 4932,
  "\u2581\u0432\u0442\u043e\u0440\u043e\u0433\u043e": 4933,
  "\u2581\u043f\u0435\u0440\u0432\u0443\u044e": 4934,
  "\u2581\u0412\u0441\u0435\u043c\u0438\u0440\u043d": 4935,
  "\u2581\u043c\u0438\u0440\u043d\u044b\u0445": 4936,
  "\u2581\u0434\u0435\u043b\u0435\u0433\u0430\u0446\u0438\u0439": 4937,
  "\u2581\u0434\u0440\u0443\u0433\u043e\u043c": 4938,
  "\u2581al": 4939,
  "\u2581\u0433\u043b\u043e\u0431\u0430\u043b\u044c\u043d\u043e\u0433\u043e": 4940,
  "\u2581\u041c\u0443": 4941,
  "\u2581\u0433\u0430\u0437\u043e\u0432": 4942,
  "\u0443\u043d": 4943,
  "\u2581press": 4944,
  "\u2581\u0432\u043a\u043b\u044e\u0447\u0430\u044e\u0442": 4945,
  "4.": 4946,
  "\u2581quite": 4947,
  "\u2581\u0432\u044b\u043f\u043e\u043b\u043d\u0435\u043d\u0438\u0438": 4948,
  "\u2581\u0442\u0440\u0443\u0434": 4949,
  "\u2581senior": 4950,
  "\u2581fall": 4951,
  "\u2581\u041f\u0440\u0430\u0432\u0438\u043b": 4952,
  "\u2581Questions": 4953,
  "\u2581#": 4954,
  "\u2581\u041c\u043d\u043e\u0433\u0438\u0435": 4955,
  "\u2581\u043f\u0440\u0435\u0434\u043e\u0441\u0442\u0430\u0432\u0438\u0442\u044c": 4956,
  "\u2581\u0441\u0435\u0440\u044c\u0435\u0437\u043d\u043e": 4957,
  "\u2581\u043e\u0442\u043a\u0440\u044b\u0442\u043e\u0433\u043e": 4958,
  "\u2581remaining": 4959,
  "\u0432\u044f\u0437": 4960,
  "\u0443\u0434": 4961,
  "\u2581\u0418\u0442\u0430\u043a": 4962,
  "\u2581\u0438\u043c\u0435\u0435\u0442\u0441\u044f": 4963,
  "\u0438\u043b\u0430\u0441\u044c": 4964,
  "\u2581\u0433\u043e\u0440\u043e\u0434": 4965,
  "\u2581\u043c\u043e\u044e": 4966,
  "\u2581\u043f\u0440\u043e\u043c\u044b\u0448\u043b\u0435\u043d\u043d\u043e\u0441\u0442\u0438": 4967,
  "\u2581\u0444\u0438\u043d\u0430\u043d\u0441\u043e\u0432\u043e\u0433\u043e": 4968,
  "\u043d\u0435\u043c": 4969,
  "\u2581\u0430\u0432\u0442\u043e\u0440\u0430": 4970,
  "less": 4971,
  "\u258176": 4972,
  "\u2581\u043f\u043e\u0441\u0442\u0430\u043d\u043e\u0432\u0438\u043b\u0430": 4973,
  "\u25811988": 4974,
  "\u2581\u0443\u0447\u0440\u0435\u0436\u0434\u0435\u043d\u0438\u044f\u0445": 4975,
  "48": 4976,
  "\u2581Their": 4977,
  "\u2581deployment": 4978,
  "\u2581\u043e\u043a\u0430\u0437\u0430\u0442\u044c": 4979,
  "\u2581crucial": 4980,
  "\u2581\u0433\u0435\u043d\u0434\u0435\u0440\u043d\u043e\u0439": 4981,
  "\u0440\u043e\u043d": 4982,
  "\u2581\u0441\u0430\u043c\u0438": 4983,
  "\u0447\u0438\u0432": 4984,
  "\u2581\u043b\u0435\u0433\u043a\u043e": 4985,
  "\u2581murder": 4986,
  "47": 4987,
  "\u2581\u0440\u0438\u0441\u043a\u0430": 4988,
  "\u0438\u0446": 4989,
  "\u2581consent": 4990,
  "hu": 4991,
  "ous": 4992,
  "\u0432\u0435\u0437": 4993,
  ".29": 4994,
  "\u044f\u0441\u044c": 4995,
  "\u2581Hoc": 4996,
  "\u0438\u043d\u0443": 4997,
  "\u2581\u0432\u043e\u0441\u0441\u0442\u0430\u043d\u043e\u0432\u043b\u0435\u043d\u0438\u044f": 4998,
  "\u0443\u0447\u0430\u0441\u0442\u043d\u0438\u043a\u0438": 4999,
  "\u2581judge": 5000,
  "\u2581\u043f\u043e\u0441\u0442\u0443\u043f\u043b\u0435\u043d\u0438\u0439": 5001,
  "\u2581\u043e\u0441\u043d\u043e\u0432\u043d\u043e\u043c": 5002,
  "\u2581trends": 5003,
  "\u2581\u043c\u043e\u0431\u0438\u043b\u0438\u0437\u0430\u0446\u0438\u0438": 5004,
  "\u2581\u043f\u043e\u043b\u0438\u0442\u0438\u0447\u0435\u0441\u043a\u0438\u043c": 5005,
  "\u2581\u043a\u0440\u0430\u0441": 5006,
  "\u2581investigations": 5007,
  "\u2581\u043e\u0440\u0433\u0430\u043d\u0438\u0437\u043e\u0432\u0430\u043d\u043d\u043e\u0439": 5008,
  "\u2581\u043a\u0443\u043b\u044c\u0442\u0443\u0440\u044b": 5009,
  "\u2581\u0443\u0432\u0435\u043b\u0438\u0447\u0435\u043d\u0438\u044f": 5010,
  "78": 5011,
  "\u2581expression": 5012,
  "\u2581\u0422\u0430\u043a\u0438\u0435": 5013,
  "\u2581\u043c\u043b\u0440\u0434": 5014,
  "\u2581presentation": 5015,
  "\u2581flow": 5016,
  "\u2581enhanced": 5017,
  "\u2581\u043e\u0442\u043c\u0435\u0447\u0430\u044f": 5018,
  "\u0440\u044f": 5019,
  "36": 5020,
  ".1.": 5021,
  "\u2581check": 5022,
  "\u2581break": 5023,
  "No": 5024,
  "\u2581\u043f\u0440\u0430\u043a\u0442\u0438\u0447\u0435\u0441\u043a\u0438": 5025,
  "\u2581\u0411\u043e\u043b\u0435\u0435": 5026,
  "\u2581\u043c\u0430\u0442\u0435\u0440\u0438\u0430\u043b\u044c\u043d\u043e": 5027,
  "\u2581\u041f\u043e\u043a\u0430": 5028,
  "\u2581Her": 5029,
  "\u2581recruitment": 5030,
  "\u2581\u0441\u0442\u043e": 5031,
  "\u2581mutual": 5032,
  "\u2581\u043f\u043e\u0437\u0432\u043e\u043b\u044f\u0435\u0442": 5033,
  "ting": 5034,
  "\u2581Him": 5035,
  "\u0441\u0435\u043b": 5036,
  "\u2581\u0426\u0435\u043b\u0435\u0432\u043e\u0439": 5037,
  "\u2581\u0447\u0438\u0441\u043b\u0443": 5038,
  "\u2581complex": 5039,
  "\u2581Another": 5040,
  "\u2581couldn": 5041,
  "\u2581\u0432\u0435\u0440\u043d\u0443\u0442\u044c\u0441\u044f": 5042,
  "\u0442\u0440\u0438": 5043,
  "\u2581\u0441\u043e\u0433\u043b\u0430\u0441\u043e\u0432\u0430\u043d\u043d\u044b\u0445": 5044,
  "\u0419\u043e\u0440\u043a\u0435": 5045,
  "\u2581\u0432\u0432\u0438\u0434\u0443": 5046,
  "\u043d\u0430\u0434": 5047,
  "\u2581\u0438\u0434\u0442\u0438": 5048,
  "\u2581emphasis": 5049,
  "UN": 5050,
  "\u2581convention": 5051,
  "\u2581De": 5052,
  "\u2581democracy": 5053,
  "\u2581\u043d\u043e\u043c\u0435\u0440": 5054,
  "\u2581rehabilitation": 5055,
  "per": 5056,
  "\u2581\u0441\u043e\u0446\u0438\u0430\u043b\u044c\u043d\u044b\u043c": 5057,
  "\u2581stuff": 5058,
  "\u2581\u0441\u043b\u044b\u0448\u0430\u043b": 5059,
  "\u2581\u043e\u0444\u0438\u0446\u0438\u0430\u043b\u044c\u043d\u043e\u0433\u043e": 5060,
  "88": 5061,
  "\u2581\u043a\u0430\u043a\u043e\u0435": 5062,
  "\u2581coordinated": 5063,
  "her": 5064,
  "14": 5065,
  "\u0443\u0447": 5066,
  "\u2581choice": 5067,
  "\u2581top": 5068,
  "\u2581urges": 5069,
  "\u25811999,": 5070,
  "\u2581\u043f\u043e\u043c\u0438\u043c\u043e": 5071,
  "\u2581draw": 5072,
  "\u2581\u0444\u043e\u0440\u0443\u043c\u0430": 5073,
  "\u2581\u041c\u043e\u0436\u043d\u043e": 5074,
  "\u2581\u043f\u0430\u0440\u0442\u043d\u0435\u0440\u0441\u0442\u0432\u0430": 5075,
  "\u2581\u0441\u043e\u0434\u0435\u0440\u0436\u0430\u0442\u0441\u044f": 5076,
  "\u2581\u0434\u0432\u0443\u043c\u044f": 5077,
  "\u2581eat": 5078,
  "\u2581\u0441\u043f\u0435\u0446\u0438\u0430\u043b\u044c\u043d\u044b\u0435": 5079,
  "EC": 5080,
  "\u2581industrial": 5081,
  "\u2581Gender": 5082,
  "\u2581containing": 5083,
  ".12": 5084,
  "\u2581story": 5085,
  "\u2581\u0434\u0435\u044f\u043d\u0438\u044f": 5086,
  "\u2581drink": 5087,
  "\u2581\u043c\u0430\u043b\u044b\u0445": 5088,
  "\u2581\u0433\u043e\u0441\u0443\u0434\u0430\u0440\u0441\u0442\u0432\u0435\u043d\u043d\u043e\u0439": 5089,
  "\u2581strengthened": 5090,
  "\u2581\u0412\u0435\u0440": 5091,
  "\u2581\u0440\u0443\u043a\u043e\u0432\u043e\u0434\u0438\u0442\u0435\u043b\u0435\u0439": 5092,
  "\u043d\u0435\u0441": 5093,
  "\u2581\u044d\u043a\u043e\u043d\u043e\u043c\u0438\u043a\u043e\u0439": 5094,
  "\u0432\u043e\u0440": 5095,
  "\u2581threats": 5096,
  "\u2581\u0438\u043c\u0435\u044e\u0442\u0441\u044f": 5097,
  "\u2581\u043e\u043a\u0430\u0437\u044b\u0432\u0430\u0435\u0442": 5098,
  "\u043a\u0443\u043f": 5099,
  "\u2581defence": 5100,
  "iii": 5101,
  "58": 5102,
  "\u2581\u0432\u0430\u0448\u0438": 5103,
  "\u2581\u043d\u0443\u0436\u043d\u0430": 5104,
  "\u2581ill": 5105,
  "\u2581collective": 5106,
  "\u2581\u043f\u0440\u0438\u043d\u0438\u043c\u0430\u0435\u0442\u0441\u044f": 5107,
  "\u043d\u044f\u0442": 5108,
  "\u2581organizational": 5109,
  "\u2581Technology": 5110,
  "\u2581courses": 5111,
  "\u2581Informal": 5112,
  "\u2581seems": 5113,
  "\u0448\u043b\u0438": 5114,
  "\u2581\u0437\u0430\u043c\u0435\u0447\u0430\u043d\u0438\u0439": 5115,
  "\u2581arrest": 5116,
  "\u2581hit": 5117,
  "\u2581produce": 5118,
  "\u2581\u0437\u0430\u043a\u043b\u044e\u0447\u0435\u043d\u043d\u044b\u0445": 5119,
  "\u2581rise": 5120,
  "\u2581\u043e\u0434\u043d\u043e\u0432\u0440\u0435\u043c\u0435\u043d\u043d\u043e": 5121,
  "\u2581migration": 5122,
  "\u2581advisory": 5123,
  "\u2581\u0442\u0432\u043e\u0435\u0439": 5124,
  "\u2581\u043d\u0435\u0434\u043e\u0441\u0442\u0430\u0442\u043e\u0447\u043d\u043e": 5125,
  "www": 5126,
  "\u2581\u0437\u0430\u043d\u0438\u043c\u0430\u044e\u0449\u0438\u0445\u0441\u044f": 5127,
  "\u2581hoc": 5128,
  "\u2581donor": 5129,
  "\u2581approximately": 5130,
  "\u2581participated": 5131,
  "\u2581\u0441\u0440\u0430\u0437\u0443": 5132,
  "\u2581\u0430\u043a\u0442\u0438\u0432\u0438\u0437\u0438\u0440\u043e\u0432\u0430\u0442\u044c": 5133,
  "\u2581observed": 5134,
  "\u2581\u044d\u043a\u0441\u043f\u043e\u0440\u0442": 5135,
  "\u2581\u0440\u0443\u043a\u043e\u0432\u043e\u0434\u0441\u0442\u0432\u043e\u043c": 5136,
  "\u2581race": 5137,
  "\u2581\u043a\u0443\u043b\u044c\u0442\u0443\u0440\u043d\u044b\u0445": 5138,
  "\u2581More": 5139,
  "33": 5140,
  "\u2581\u0438\u0437\u0443\u0447\u0435\u043d\u0438\u044f": 5141,
  "\u2581Financing": 5142,
  "32": 5143,
  "\u0447\u0438\u0441\u0442": 5144,
  "\u2581\u041a\u043e\u043d\u0432\u0435\u043d\u0446\u0438\u044e": 5145,
  "\u2581\u041f\u0440\u0430\u0432\u0434\u0430": 5146,
  "\u0434\u0435\u0448\u044c": 5147,
  "\u2581\u0441\u0432\u044f\u0437\u0435\u0439": 5148,
  "\u2581iii": 5149,
  "\u041e\u0414": 5150,
  "\u2581\u043e\u0441\u0443\u0449\u0435\u0441\u0442\u0432\u043b\u044f\u0442\u044c\u0441\u044f": 5151,
  "\u2581400": 5152,
  "\u2581comply": 5153,
  "\u2581\u0432\u044b\u0440\u0430\u0437\u0438\u043b": 5154,
  "\u2581\u043d\u0430\u0446\u0438\u043e\u043d\u0430\u043b\u044c\u043d\u044b\u043c\u0438": 5155,
  "\u2581\u0441\u0438\u0441\u0442\u0435\u043c\u043e\u0439": 5156,
  "\u2581\u0441\u043e\u0434\u0435\u0440\u0436\u0430\u0449\u0438\u0435\u0441\u044f": 5157,
  "\u0428": 5158,
  "\u2581\u041a\u043e\u0442": 5159,
  "\u2581\u0433\u043e\u0440\u043e\u0434\u0430": 5160,
  "\u2581pro": 5161,
  "\u2581chance": 5162,
  "\u2581accused": 5163,
  "\u2581\u0432\u0441\u0442\u0443\u043f\u043b\u0435\u043d\u0438\u044f": 5164,
  "[": 5165,
  "\u2581\u041b\u0430\u0442\u0438\u043d\u0441\u043a\u043e": 5166,
  "\u0442\u043e\u0432": 5167,
  "\u043b\u0435\u043d\u0438\u0435": 5168,
  "\u2581\u0447\u0443\u0432\u0441\u0442\u0432": 5169,
  "\u2581\u0432\u043e\u0441": 5170,
  "-19": 5171,
  "ts": 5172,
  "\u2581\u0432\u043e\u0437\u043c\u043e\u0436\u043d\u044b\u0445": 5173,
  "\u0441\u043e\u0432\u0435\u0440\u0448\u0435\u043d\u043d\u043e\u043b\u0435\u0442\u043d\u0438\u0445": 5174,
  "\u2581\u043c\u0430\u0442\u0435\u0440\u0438": 5175,
  "\u2581\u041f\u0440\u0435\u0434\u0441\u0435\u0434\u0430\u0442\u0435\u043b\u0435\u043c": 5176,
  "\u2581\u043f\u0440\u0430\u0432\u0438\u0442\u0435\u043b\u044c\u0441\u0442\u0432\u0430\u043c\u0438": 5177,
  "\u2581\u0432\u0441\u043f\u043e\u043c\u043e\u0433\u0430\u0442\u0435\u043b\u044c\u043d\u044b\u0445": 5178,
  "\u2581\u043b\u044e\u0431\u043e\u0435": 5179,
  "\u2581\u0432\u043c\u0435\u0441\u0442\u043e": 5180,
  "\u2581\u043d\u0435\u0432\u043e\u0437\u043c\u043e\u0436\u043d\u043e": 5181,
[...]
